{
  "version": "1.0",
  "truncation": null,
  "padding": null,
  "added_tokens": [
    {
      "id": 0,
      "content": "<PAD>",
      "single_word": false,
      "lstrip": false,
      "rstrip": false,
      "normalized": false,
      "special": true
    },
    {
      "id": 1,
      "content": "<UNK>",
      "single_word": false,
      "lstrip": false,
      "rstrip": false,
      "normalized": false,
      "special": true
    },
    {
      "id": 2,
      "content": "<BOS>",
      "single_word": false,
      "lstrip": false,
      "rstrip": false,
      "normalized": false,
      "special": true
    },
    {
      "id": 3,
      "content": "<EOS>",
      "single_word": false,
      "lstrip": false,
      "rstrip": false,
      "normalized": false,
      "special": true
    }
  ],
  "normalizer": null,
  "pre_tokenizer": {
    "type": "ByteLevel",
    "add_prefix_space": false,
    "trim_offsets": true,
    "use_regex": true
  },
  "post_processor": null,
  "decoder": {
    "type": "ByteLevel",
    "add_prefix_space": true,
    "trim_offsets": true,
    "use_regex": true
  },
  "model": {
    "type": "BPE",
    "dropout": null,
    "unk_token": "<UNK>",
    "continuing_subword_prefix": null,
    "end_of_word_suffix": null,
    "fuse_unk": false,
    "byte_fallback": false,
    "ignore_merges": false,
    "vocab": {
      "<PAD>": 0,
      "<UNK>": 1,
      "<BOS>": 2,
      "<EOS>": 3,
      "!": 4,
      "\"": 5,
      "#": 6,
      "$": 7,
      "%": 8,
      "&": 9,
      "'": 10,
      "(": 11,
      ")": 12,
      "*": 13,
      "+": 14,
      ",": 15,
      "-": 16,
      ".": 17,
      "/": 18,
      "0": 19,
      "1": 20,
      "2": 21,
      "3": 22,
      "4": 23,
      "5": 24,
      "6": 25,
      "7": 26,
      "8": 27,
      "9": 28,
      ":": 29,
      ";": 30,
      "<": 31,
      "=": 32,
      ">": 33,
      "?": 34,
      "@": 35,
      "A": 36,
      "B": 37,
      "C": 38,
      "D": 39,
      "E": 40,
      "F": 41,
      "G": 42,
      "H": 43,
      "I": 44,
      "J": 45,
      "K": 46,
      "L": 47,
      "M": 48,
      "N": 49,
      "O": 50,
      "P": 51,
      "Q": 52,
      "R": 53,
      "S": 54,
      "T": 55,
      "U": 56,
      "V": 57,
      "W": 58,
      "X": 59,
      "Y": 60,
      "Z": 61,
      "[": 62,
      "\\": 63,
      "]": 64,
      "^": 65,
      "_": 66,
      "`": 67,
      "a": 68,
      "b": 69,
      "c": 70,
      "d": 71,
      "e": 72,
      "f": 73,
      "g": 74,
      "h": 75,
      "i": 76,
      "j": 77,
      "k": 78,
      "l": 79,
      "m": 80,
      "n": 81,
      "o": 82,
      "p": 83,
      "q": 84,
      "r": 85,
      "s": 86,
      "t": 87,
      "u": 88,
      "v": 89,
      "w": 90,
      "x": 91,
      "y": 92,
      "z": 93,
      "{": 94,
      "|": 95,
      "}": 96,
      "~": 97,
      "¡": 98,
      "¢": 99,
      "£": 100,
      "¤": 101,
      "¥": 102,
      "¦": 103,
      "§": 104,
      "¨": 105,
      "©": 106,
      "ª": 107,
      "«": 108,
      "¬": 109,
      "®": 110,
      "¯": 111,
      "°": 112,
      "±": 113,
      "²": 114,
      "³": 115,
      "´": 116,
      "µ": 117,
      "¶": 118,
      "·": 119,
      "¸": 120,
      "¹": 121,
      "º": 122,
      "»": 123,
      "¼": 124,
      "½": 125,
      "¾": 126,
      "¿": 127,
      "Â": 128,
      "Ã": 129,
      "Ä": 130,
      "Å": 131,
      "Æ": 132,
      "Ç": 133,
      "È": 134,
      "É": 135,
      "Ê": 136,
      "Ë": 137,
      "Ì": 138,
      "Í": 139,
      "Î": 140,
      "Ï": 141,
      "Ð": 142,
      "Ñ": 143,
      "Ò": 144,
      "Ó": 145,
      "Ô": 146,
      "Õ": 147,
      "Ö": 148,
      "×": 149,
      "Ø": 150,
      "Ù": 151,
      "Ú": 152,
      "Û": 153,
      "Ü": 154,
      "Ý": 155,
      "Þ": 156,
      "ß": 157,
      "à": 158,
      "á": 159,
      "â": 160,
      "ã": 161,
      "ä": 162,
      "å": 163,
      "æ": 164,
      "ç": 165,
      "è": 166,
      "é": 167,
      "ê": 168,
      "ë": 169,
      "ì": 170,
      "í": 171,
      "ï": 172,
      "ð": 173,
      "Ġ": 174,
      "Ģ": 175,
      "ģ": 176,
      "Ĥ": 177,
      "ĥ": 178,
      "Ħ": 179,
      "ħ": 180,
      "Ĩ": 181,
      "ĩ": 182,
      "Ī": 183,
      "ī": 184,
      "Ĭ": 185,
      "ĭ": 186,
      "Į": 187,
      "į": 188,
      "İ": 189,
      "ı": 190,
      "Ĳ": 191,
      "ĳ": 192,
      "Ĵ": 193,
      "ĵ": 194,
      "Ķ": 195,
      "ķ": 196,
      "ĸ": 197,
      "Ĺ": 198,
      "ĺ": 199,
      "Ļ": 200,
      "ļ": 201,
      "Ľ": 202,
      "ľ": 203,
      "Ŀ": 204,
      "ŀ": 205,
      "Ł": 206,
      "ł": 207,
      "Ń": 208,
      "Ġt": 209,
      "Ġa": 210,
      "in": 211,
      "er": 212,
      "on": 213,
      "he": 214,
      "re": 215,
      "or": 216,
      "at": 217,
      "Ġs": 218,
      "es": 219,
      "en": 220,
      "Ġthe": 221,
      "an": 222,
      "ou": 223,
      "it": 224,
      "Ġc": 225,
      "Ġw": 226,
      "is": 227,
      "al": 228,
      "ing": 229,
      "Ġp": 230,
      "ar": 231,
      "Ġf": 232,
      "Ġan": 233,
      "Ġo": 234,
      "ed": 235,
      "Ġb": 236,
      "ic": 237,
      "Ġto": 238,
      "Ġm": 239,
      "ion": 240,
      "Ġand": 241,
      "Ġin": 242,
      "le": 243,
      "ĠS": 244,
      "Ġof": 245,
      "om": 246,
      "Ġd": 247,
      "as": 248,
      "ĠT": 249,
      "ĠC": 250,
      "ĠA": 251,
      "ent": 252,
      "il": 253,
      "Ġh": 254,
      "ro": 255,
      "ct": 256,
      "Ġth": 257,
      "st": 258,
      "ĠP": 259,
      "el": 260,
      "et": 261,
      "Ġy": 262,
      "ĠI": 263,
      "Ġ-": 264,
      "Ġre": 265,
      "ĠM": 266,
      "Ġl": 267,
      "Ġyou": 268,
      "ĠB": 269,
      "Ġe": 270,
      "Ġn": 271,
      "ol": 272,
      "ve": 273,
      "id": 274,
      "ot": 275,
      "ch": 276,
      "us": 277,
      "Ġg": 278,
      "ation": 279,
      "ĠD": 280,
      "am": 281,
      "ow": 282,
      "Ġfor": 283,
      "ce": 284,
      "ig": 285,
      "ĠW": 286,
      "ers": 287,
      "ĠF": 288,
      "Ġis": 289,
      "ay": 290,
      "Ġ1": 291,
      "im": 292,
      "ĠR": 293,
      "ur": 294,
      "Ġon": 295,
      "ly": 296,
      "ad": 297,
      "ĠH": 298,
      "Ġ(": 299,
      "Ġ2": 300,
      "ut": 301,
      "Ġbe": 302,
      "un": 303,
      "ith": 304,
      "ĠL": 305,
      "th": 306,
      "ir": 307,
      "ĠE": 308,
      "ul": 309,
      "ver": 310,
      "ag": 311,
      "Ġst": 312,
      "Ġwith": 313,
      "ĠG": 314,
      "ĠN": 315,
      "ter": 316,
      "Ġthat": 317,
      "ra": 318,
      "Ġpro": 319,
      "ĠO": 320,
      "em": 321,
      "if": 322,
      "ess": 323,
      "ab": 324,
      "os": 325,
      "Ġor": 326,
      "est": 327,
      "pp": 328,
      "our": 329,
      "od": 330,
      "ck": 331,
      "ill": 332,
      "Ġit": 333,
      "Ġcon": 334,
      "Ġal": 335,
      "ate": 336,
      "ĠThe": 337,
      "ri": 338,
      "Ġare": 339,
      "00": 340,
      "Ġas": 341,
      "Ġyour": 342,
      "and": 343,
      "ment": 344,
      "Ġwh": 345,
      "ts": 346,
      "Ġv": 347,
      "ies": 348,
      "ew": 349,
      "ore": 350,
      "ity": 351,
      "qu": 352,
      "ak": 353,
      "Ġcom": 354,
      "um": 355,
      "..": 356,
      "'s": 357,
      "ure": 358,
      "op": 359,
      "ec": 360,
      "ect": 361,
      "igh": 362,
      "ist": 363,
      "ĠIn": 364,
      "Ġex": 365,
      "out": 366,
      "rom": 367,
      "iv": 368,
      "oun": 369,
      "ĠJ": 370,
      "Ġwe": 371,
      "ere": 372,
      "se": 373,
      "art": 374,
      "Ġus": 375,
      "Ġ20": 376,
      "Ġat": 377,
      "ust": 378,
      "ĠU": 379,
      "ive": 380,
      "Ġha": 381,
      "ain": 382,
      "ort": 383,
      "Ġcan": 384,
      "ard": 385,
      "Ġby": 386,
      "ant": 387,
      "ĠV": 388,
      "Ġhe": 389,
      "all": 390,
      "res": 391,
      "og": 392,
      "ial": 393,
      "ost": 394,
      "ld": 395,
      "pt": 396,
      "ud": 397,
      "ear": 398,
      "Ġr": 399,
      "ine": 400,
      "Ġfrom": 401,
      "ĠSt": 402,
      "end": 403,
      "Ġsu": 404,
      "Ġsh": 405,
      "Ġde": 406,
      "ok": 407,
      "Ġch": 408,
      "Ġthis": 409,
      "ĠTh": 410,
      "ĠK": 411,
      "oc": 412,
      "ice": 413,
      "Ġnot": 414,
      "Ġhave": 415,
      "per": 416,
      "ions": 417,
      "are": 418,
      "ac": 419,
      "ip": 420,
      "ome": 421,
      "ide": 422,
      "orm": 423,
      "Ġ3": 424,
      "age": 425,
      "ell": 426,
      "ĠY": 427,
      "Ġwill": 428,
      "iz": 429,
      "able": 430,
      "Ġse": 431,
      "ge": 432,
      "Ġk": 433,
      "Ġ\"": 434,
      "ight": 435,
      "ast": 436,
      "cc": 437,
      "ap": 438,
      "ail": 439,
      "ff": 440,
      "Ġun": 441,
      "Ġle": 442,
      "pl": 443,
      "Ġad": 444,
      "du": 445,
      "ork": 446,
      "âĢ": 447,
      "act": 448,
      "ook": 449,
      "Ġall": 450,
      "der": 451,
      "Ġpl": 452,
      "ack": 453,
      "Ġsp": 454,
      "ite": 455,
      "up": 456,
      "ia": 457,
      "Ġen": 458,
      "ry": 459,
      "Ġab": 460,
      "ire": 461,
      "ance": 462,
      "ong": 463,
      "form": 464,
      "ib": 465,
      "ep": 466,
      "ans": 467,
      "ical": 468,
      "Ġwas": 469,
      "ther": 470,
      "Ġ#": 471,
      "ub": 472,
      "Ġcomp": 473,
      "ated": 474,
      "Ġour": 475,
      "ik": 476,
      "Ġj": 477,
      "ich": 478,
      "gh": 479,
      "ĠCh": 480,
      "Ġ&": 481,
      "ue": 482,
      "erv": 483,
      "Ġcont": 484,
      "ase": 485,
      "ence": 486,
      "ould": 487,
      "ber": 488,
      "hen": 489,
      "ake": 490,
      "ign": 491,
      "Ġ4": 492,
      "ass": 493,
      "fer": 494,
      "one": 495,
      "ind": 496,
      "ary": 497,
      "Ġhas": 498,
      "Ġne": 499,
      "av": 500,
      "Ġ0": 501,
      "ous": 502,
      "cl": 503,
      "ations": 504,
      "Ġim": 505,
      "ord": 506,
      "Ġcl": 507,
      "Ġdo": 508,
      "...": 509,
      "ĠRe": 510,
      "ĠAn": 511,
      "ime": 512,
      "ĠWe": 513,
      "ick": 514,
      "Ġapp": 515,
      "ru": 516,
      "ood": 517,
      "very": 518,
      "Ġres": 519,
      "ie": 520,
      "Ġmore": 521,
      "ll": 522,
      "ame": 523,
      "ach": 524,
      "ough": 525,
      "com": 526,
      "Ġ5": 527,
      "ark": 528,
      "ult": 529,
      "ound": 530,
      "her": 531,
      "Ġ202": 532,
      "ace": 533,
      "ction": 534,
      "ual": 535,
      "Ġtheir": 536,
      "ĠâĢ": 537,
      "Ġme": 538,
      "ang": 539,
      "Ġso": 540,
      "ress": 541,
      "Ġany": 542,
      "ile": 543,
      "so": 544,
      "Ġup": 545,
      "ors": 546,
      "ree": 547,
      "lo": 548,
      "ont": 549,
      "Ġper": 550,
      "Ġar": 551,
      "ĠPro": 552,
      "Ġ201": 553,
      "Ġtr": 554,
      "--": 555,
      "vel": 556,
      "ition": 557,
      "iew": 558,
      "Ġte": 559,
      "Ġ$": 560,
      "reat": 561,
      "Ġbut": 562,
      "Ġman": 563,
      "ens": 564,
      "ĠSh": 565,
      "ings": 566,
      "ents": 567,
      "Ġout": 568,
      "ount": 569,
      "ĠIt": 570,
      "Ġint": 571,
      "ose": 572,
      "Ġqu": 573,
      "own": 574,
      "Ġthey": 575,
      "Ġwhich": 576,
      "Ġacc": 577,
      "ren": 578,
      "Ġwork": 579,
      "ĠThis": 580,
      "ays": 581,
      "Ġdis": 582,
      "anc": 583,
      "Ġone": 584,
      "ĠCom": 585,
      "20": 586,
      "Ġabout": 587,
      "ely": 588,
      "ater": 589,
      "bs": 590,
      "Ġother": 591,
      "Ġalso": 592,
      "gr": 593,
      "ish": 594,
      "ER": 595,
      "Ġimp": 596,
      "'t": 597,
      "ike": 598,
      "ov": 599,
      "Ġ6": 600,
      "Ġtime": 601,
      "duct": 602,
      "oy": 603,
      "Ġprov": 604,
      "Ġpre": 605,
      "oll": 606,
      "ory": 607,
      "ian": 608,
      "te": 609,
      "Ġ7": 610,
      "row": 611,
      "ices": 612,
      "ĠYou": 613,
      "ond": 614,
      "lect": 615,
      "ink": 616,
      "ey": 617,
      "Ġpart": 618,
      "Ġem": 619,
      "Ġmy": 620,
      "ons": 621,
      "ments": 622,
      "ĠWh": 623,
      "Ġmay": 624,
      "ĠUn": 625,
      "Ġpr": 626,
      "ĠAd": 627,
      "Ġnew": 628,
      "enc": 629,
      "ild": 630,
      "ph": 631,
      "lic": 632,
      "formation": 633,
      "Ġev": 634,
      "ĠHe": 635,
      "clud": 636,
      "Ġinter": 637,
      "oin": 638,
      "Ġfe": 639,
      "Ġuse": 640,
      "Ġsc": 641,
      "ss": 642,
      "ata": 643,
      "Ġsa": 644,
      "Ġdes": 645,
      "Ġgo": 646,
      "ĠSp": 647,
      "ove": 648,
      "ally": 649,
      "Ġget": 650,
      "Ġadd": 651,
      "mer": 652,
      "Ġ/": 653,
      "ob": 654,
      "ool": 655,
      "Ġyear": 656,
      "Ġneed": 657,
      "Ġind": 658,
      "Ġserv": 659,
      "les": 660,
      "ĠâĢĵ": 661,
      "Ġwho": 662,
      "Ġif": 663,
      "ates": 664,
      "ari": 665,
      "Ġ19": 666,
      "ank": 667,
      "ĠEn": 668,
      "Ġag": 669,
      "ade": 670,
      "ics": 671,
      "Ġwhen": 672,
      "Ġbeen": 673,
      "Ġsome": 674,
      "ON": 675,
      "old": 676,
      "ific": 677,
      "lp": 678,
      "10": 679,
      "ility": 680,
      "Ġ|": 681,
      "Ġover": 682,
      "ĠOn": 683,
      "ning": 684,
      "ities": 685,
      "erson": 686,
      "line": 687,
      "ĠCl": 688,
      "à¤": 689,
      "Ġkn": 690,
      "Ġthem": 691,
      "Ġ8": 692,
      "aw": 693,
      "erm": 694,
      "ert": 695,
      "red": 696,
      "Ġits": 697,
      "Ġinclud": 698,
      "Ġhelp": 699,
      "ject": 700,
      "ft": 701,
      "Ġoff": 702,
      "xt": 703,
      "its": 704,
      "tt": 705,
      "ĠSe": 706,
      "Ġlike": 707,
      "yst": 708,
      "Ġcomm": 709,
      "pe": 710,
      "Ġam": 711,
      "als": 712,
      "AN": 713,
      "Ġhow": 714,
      "rough": 715,
      "ĠDe": 716,
      "iness": 717,
      "Ġ9": 718,
      "ise": 719,
      "ĠIf": 720,
      "ating": 721,
      "ĠFor": 722,
      "Ġthere": 723,
      "olog": 724,
      "ĠNew": 725,
      "ience": 726,
      "Ġ10": 727,
      "Ġro": 728,
      "pport": 729,
      "Ġcons": 730,
      "ature": 731,
      "iss": 732,
      "urn": 733,
      "ets": 734,
      "IN": 735,
      "Ġno": 736,
      "we": 737,
      "ular": 738,
      "ĠQ": 739,
      "ES": 740,
      "Ġinformation": 741,
      "ric": 742,
      "ps": 743,
      "hed": 744,
      "irst": 745,
      "Ġpe": 746,
      "Ġrec": 747,
      "Ġexper": 748,
      "Ġthese": 749,
      "use": 750,
      "ful": 751,
      "ower": 752,
      "alth": 753,
      "ĠTe": 754,
      "ock": 755,
      "usiness": 756,
      "Ġtra": 757,
      "ĠAr": 758,
      "Ġgr": 759,
      "Ġhis": 760,
      "ting": 761,
      "Ġ[": 762,
      "ange": 763,
      "Ġcol": 764,
      "ystem": 765,
      "Ġmake": 766,
      "riv": 767,
      "AR": 768,
      "Ġreg": 769,
      "rit": 770,
      "Ġwhat": 771,
      "Ġinto": 772,
      "Ġact": 773,
      "Ġthan": 774,
      "tern": 775,
      "Ġunder": 776,
      "oth": 777,
      "ĠEx": 778,
      "LP": 779,
      "eth": 780,
      "Ġwould": 781,
      "Ġ,": 782,
      "Ġass": 783,
      "Ġonly": 784,
      "Ġspec": 785,
      "Ġrequ": 786,
      "Ġbu": 787,
      "ale": 788,
      "ĠPl": 789,
      "ible": 790,
      "amp": 791,
      "AT": 792,
      "ax": 793,
      "ract": 794,
      "ĠLe": 795,
      "Ġbet": 796,
      "Ġrep": 797,
      "Ġdif": 798,
      "chn": 799,
      "Ġproduct": 800,
      "over": 801,
      "fter": 802,
      "earch": 803,
      "Ġthrough": 804,
      "ĠAl": 805,
      "ĠAll": 806,
      "und": 807,
      "ĠBl": 808,
      "Ġhigh": 809,
      "ys": 810,
      "ath": 811,
      "ener": 812,
      "ople": 813,
      "ife": 814,
      "Ġmost": 815,
      "Ġdata": 816,
      "Ġbl": 817,
      "ustom": 818,
      "Ġjust": 819,
      "Ġâ": 820,
      "hes": 821,
      "view": 822,
      "Ġinc": 823,
      "ational": 824,
      "ize": 825,
      "ash": 826,
      "orn": 827,
      "Ġbr": 828,
      "ĠSc": 829,
      "rib": 830,
      "cess": 831,
      "EN": 832,
      "any": 833,
      "ased": 834,
      "ug": 835,
      "ek": 836,
      "ement": 837,
      "ĠCont": 838,
      "Ġrel": 839,
      "Ġinv": 840,
      "50": 841,
      "ĠZ": 842,
      "OR": 843,
      "io": 844,
      "Ġher": 845,
      "Ġevery": 846,
      "orth": 847,
      "Ġph": 848,
      "ption": 849,
      "hip": 850,
      "arg": 851,
      "ient": 852,
      "Ġwell": 853,
      "ied": 854,
      "oss": 855,
      "Ġwere": 856,
      "orld": 857,
      "uring": 858,
      "Ġsuch": 859,
      "ages": 860,
      ").": 861,
      "ited": 862,
      "velop": 863,
      "gan": 864,
      "Ġfl": 865,
      ",\"": 866,
      "Ġfirst": 867,
      "Ġexp": 868,
      "Ġlook": 869,
      "air": 870,
      "wn": 871,
      "Ġac": 872,
      "Ġ200": 873,
      "ection": 874,
      "ily": 875,
      "Ġbec": 876,
      "Ġtw": 877,
      "Ġmod": 878,
      "lease": 879,
      "Ġinst": 880,
      "Ġtrans": 881,
      "Ġknow": 882,
      "Ġav": 883,
      "ĠAs": 884,
      "Ġ'": 885,
      "Ġpeople": 886,
      "12": 887,
      "ards": 888,
      "day": 889,
      "land": 890,
      "19": 891,
      "Ġrem": 892,
      "rong": 893,
      "ier": 894,
      "ĠBe": 895,
      "Ġeff": 896,
      "ious": 897,
      "ĠOr": 898,
      "ton": 899,
      "Ġpost": 900,
      "ix": 901,
      "Ġatt": 902,
      "Ġperson": 903,
      "Ġprovid": 904,
      "----": 905,
      "ĠTo": 906,
      "gram": 907,
      "Ġdet": 908,
      "ĠHow": 909,
      "ull": 910,
      "fore": 911,
      "br": 912,
      "Ġdec": 913,
      "AL": 914,
      "ause": 915,
      "ĠPr": 916,
      "ĠTr": 917,
      "Ġdiffer": 918,
      "ĠAnd": 919,
      "aking": 920,
      "Ġent": 921,
      "18": 922,
      "Ġwebs": 923,
      "Ġ12": 924,
      "ĠRes": 925,
      "ollow": 926,
      "),": 927,
      "Ġhad": 928,
      "Ġbusiness": 929,
      "Ġsec": 930,
      "Ġret": 931,
      "Ġfin": 932,
      "chool": 933,
      "000": 934,
      "az": 935,
      "Ġbest": 936,
      "ah": 937,
      "Ġ18": 938,
      "arket": 939,
      "ivers": 940,
      "ĠÂ": 941,
      "Ġyears": 942,
      "ble": 943,
      "let": 944,
      "Ġgu": 945,
      "ĠPh": 946,
      "arm": 947,
      "__": 948,
      "ident": 949,
      "ative": 950,
      "Ġwant": 951,
      "arn": 952,
      "ty": 953,
      "Ġra": 954,
      "Ġins": 955,
      "Ġsm": 956,
      "Ġmany": 957,
      "Ġshould": 958,
      "Ġsystem": 959,
      "ines": 960,
      "Ġcar": 961,
      "ality": 962,
      "ten": 963,
      "Ġwhere": 964,
      "ants": 965,
      "elf": 966,
      "Ġ...": 967,
      "Ġback": 968,
      "Ġdesign": 969,
      "ven": 970,
      "ology": 971,
      "Ġvari": 972,
      "//": 973,
      "pping": 974,
      "IT": 975,
      "ĠSu": 976,
      "ww": 977,
      "Ġdel": 978,
      "Ġpur": 979,
      "els": 980,
      "Ġloc": 981,
      "ccess": 982,
      "ues": 983,
      "ox": 984,
      "ĠCol": 985,
      "Ġsub": 986,
      "Ġsee": 987,
      "ures": 988,
      "Ġshe": 989,
      "Ġsaid": 990,
      "orts": 991,
      "ene": 992,
      "ĠCon": 993,
      "Ġtwo": 994,
      "Ġcustom": 995,
      "Ġgreat": 996,
      "Ġvery": 997,
      "Ġ:": 998,
      "itt": 999,
      "ows": 1000,
      "Ġset": 1001,
      "ital": 1002,
      "au": 1003,
      "99": 1004,
      "Ġprocess": 1005,
      "Ġche": 1006,
      "ĠComp": 1007,
      "Ġused": 1008,
      "Ġplay": 1009,
      "11": 1010,
      "ars": 1011,
      "://": 1012,
      "Ġart": 1013,
      "ann": 1014,
      "Ġmin": 1015,
      "Ġresp": 1016,
      "Ġ.": 1017,
      "Ġread": 1018,
      "ution": 1019,
      "atch": 1020,
      "Ġbel": 1021,
      "Ġway": 1022,
      "Ġgood": 1023,
      "Ġsl": 1024,
      "ĠFe": 1025,
      "Ġfind": 1026,
      "'re": 1027,
      "iel": 1028,
      "ict": 1029,
      "ĠGr": 1030,
      "30": 1031,
      "ness": 1032,
      "Ġaut": 1033,
      "irect": 1034,
      "ailable": 1035,
      "Ġown": 1036,
      "Ġvis": 1037,
      "Ġafter": 1038,
      "yn": 1039,
      "ety": 1040,
      "ĠInd": 1041,
      "Ġnum": 1042,
      "Ġmon": 1043,
      "Ġonline": 1044,
      "arch": 1045,
      "Ġwebsite": 1046,
      "duc": 1047,
      "olic": 1048,
      "Ġmem": 1049,
      "Ġext": 1050,
      "Ġdevelop": 1051,
      "ather": 1052,
      "Ġadv": 1053,
      "ories": 1054,
      "Ġsign": 1055,
      "Ġstud": 1056,
      ".\"": 1057,
      "oup": 1058,
      "Ġsupport": 1059,
      "Ġfun": 1060,
      "\":": 1061,
      "urren": 1062,
      "ider": 1063,
      "ized": 1064,
      "Ġval": 1065,
      "ural": 1066,
      "pr": 1067,
      "ames": 1068,
      "ublic": 1069,
      "ave": 1070,
      "int": 1071,
      "pen": 1072,
      "Ġlong": 1073,
      "ĠUS": 1074,
      "ateg": 1075,
      "ee": 1076,
      "iqu": 1077,
      "ĠApp": 1078,
      "Ġdisc": 1079,
      "uch": 1080,
      "led": 1081,
      "Ġfollow": 1082,
      "ross": 1083,
      "get": 1084,
      "ator": 1085,
      "Ġaccess": 1086,
      "ĠServ": 1087,
      "Ġnow": 1088,
      "ode": 1089,
      "ins": 1090,
      "att": 1091,
      "Ġform": 1092,
      "Ġtake": 1093,
      "16": 1094,
      "Ġeven": 1095,
      "ĠOur": 1096,
      "Ġsim": 1097,
      "bers": 1098,
      "raph": 1099,
      "Ġpres": 1100,
      "Ġdown": 1101,
      "Ġhere": 1102,
      "24": 1103,
      "less": 1104,
      "eng": 1105,
      "Ġed": 1106,
      "âĢĶ": 1107,
      "TC": 1108,
      "ĠBr": 1109,
      "ives": 1110,
      "oint": 1111,
      "ern": 1112,
      "Ġcre": 1113,
      "Ġrequire": 1114,
      "IS": 1115,
      "other": 1116,
      "Ġtechn": 1117,
      "ason": 1118,
      "Ġthen": 1119,
      "IC": 1120,
      "Ġhand": 1121,
      "Ġ;": 1122,
      "pos": 1123,
      "ential": 1124,
      "à¸": 1125,
      "Ġfr": 1126,
      "Ġoffer": 1127,
      "Ġopt": 1128,
      "Ġorder": 1129,
      "ruct": 1130,
      "ĠUs": 1131,
      "ĠWith": 1132,
      "alk": 1133,
      "Ġty": 1134,
      "Ġdifferent": 1135,
      "Ġprof": 1136,
      "Ġusing": 1137,
      "ED": 1138,
      "uss": 1139,
      "22": 1140,
      "ner": 1141,
      "AS": 1142,
      "Ġworld": 1143,
      "ĠWhat": 1144,
      "read": 1145,
      "Ġmed": 1146,
      "ever": 1147,
      "Ġbeing": 1148,
      "ãģ": 1149,
      "ĠSo": 1150,
      "Ġsur": 1151,
      "Ġstart": 1152,
      "Ġright": 1153,
      "Ġcould": 1154,
      "Ġday": 1155,
      "Ġhome": 1156,
      "eep": 1157,
      "15": 1158,
      "lection": 1159,
      "Ġexperience": 1160,
      "ĠQu": 1161,
      "ĠIs": 1162,
      "Ġdoes": 1163,
      "Ġdef": 1164,
      "ights": 1165,
      "Ġ2023": 1166,
      "13": 1167,
      "ces": 1168,
      "Ġsk": 1169,
      "Ġcook": 1170,
      "vent": 1171,
      "unity": 1172,
      "ouse": 1173,
      "ĠX": 1174,
      "ĠYour": 1175,
      "ional": 1176,
      "Ġfree": 1177,
      "Ġgener": 1178,
      "ĠFr": 1179,
      "ically": 1180,
      "ually": 1181,
      "ield": 1182,
      "ware": 1183,
      "Ġbefore": 1184,
      "Ġmade": 1185,
      "Ġprovide": 1186,
      "UR": 1187,
      "Ġdon": 1188,
      "ĠReg": 1189,
      "oard": 1190,
      "ĠHome": 1191,
      "ĠAdd": 1192,
      "Ġavailable": 1193,
      "ery": 1194,
      "Ġeas": 1195,
      "Ġtop": 1196,
      "ex": 1197,
      "Ġservice": 1198,
      "ĠBy": 1199,
      "meric": 1200,
      "Ġservices": 1201,
      "Ġhealth": 1202,
      "14": 1203,
      "Ġeach": 1204,
      "ails": 1205,
      "Ġlife": 1206,
      "oot": 1207,
      "Ġcare": 1208,
      "oci": 1209,
      "17": 1210,
      "ĠAb": 1211,
      "ĠMan": 1212,
      "ĠÃ": 1213,
      "ĠThere": 1214,
      "work": 1215,
      "Ġcall": 1216,
      "erg": 1217,
      "Ġprogram": 1218,
      "uc": 1219,
      "ween": 1220,
      "ases": 1221,
      "Ġthose": 1222,
      "riend": 1223,
      "cri": 1224,
      "Ġ15": 1225,
      "Ġrece": 1226,
      "con": 1227,
      "Ġprice": 1228,
      "ĠEm": 1229,
      "acy": 1230,
      "imes": 1231,
      "ability": 1232,
      "Ġsame": 1233,
      "ĠMed": 1234,
      "ote": 1235,
      "ists": 1236,
      "ĠComm": 1237,
      "AC": 1238,
      "Ġmarket": 1239,
      "way": 1240,
      "Ġ=": 1241,
      "ĠEng": 1242,
      "Ġpay": 1243,
      "oh": 1244,
      "ute": 1245,
      "Ġimport": 1246,
      "ling": 1247,
      "ody": 1248,
      "ining": 1249,
      "ĠBut": 1250,
      "arge": 1251,
      "stand": 1252,
      "Ġincluding": 1253,
      "Ġpar": 1254,
      "Ġfam": 1255,
      "Ġsol": 1256,
      "Ġhtt": 1257,
      "Ġcle": 1258,
      "ency": 1259,
      "Ġi": 1260,
      "ms": 1261,
      "Ġprot": 1262,
      "Ġappro": 1263,
      "Ġ30": 1264,
      "akes": 1265,
      "Ġmuch": 1266,
      "EL": 1267,
      "ats": 1268,
      "Ġco": 1269,
      "ours": 1270,
      "Ġ>": 1271,
      "ploy": 1272,
      "ization": 1273,
      "reen": 1274,
      "ites": 1275,
      "Ġlist": 1276,
      "man": 1277,
      "Ġwhile": 1278,
      "itions": 1279,
      "agement": 1280,
      "23": 1281,
      "Ġbecause": 1282,
      "ET": 1283,
      "of": 1284,
      "isc": 1285,
      "Ġlead": 1286,
      "be": 1287,
      "ron": 1288,
      "Ġbetween": 1289,
      "ĠDes": 1290,
      "Ġend": 1291,
      "ward": 1292,
      "Ġmain": 1293,
      "ems": 1294,
      "Ġob": 1295,
      "Ġinf": 1296,
      "oad": 1297,
      "Ġproducts": 1298,
      "omen": 1299,
      "Ġ14": 1300,
      "ne": 1301,
      "Ġpass": 1302,
      "ym": 1303,
      "Ġmust": 1304,
      "cept": 1305,
      "ision": 1306,
      "Ġboth": 1307,
      "Ġcho": 1308,
      "ĠView": 1309,
      "ĠNo": 1310,
      "Ġcount": 1311,
      "Ġteam": 1312,
      "ving": 1313,
      "lex": 1314,
      "ĠAmeric": 1315,
      "sh": 1316,
      "Ġser": 1317,
      "Ġ+": 1318,
      "Ġperform": 1319,
      "ĠAm": 1320,
      "ĠBTC": 1321,
      "urrent": 1322,
      "ĠPost": 1323,
      "Ġsom": 1324,
      "aut": 1325,
      "af": 1326,
      "load": 1327,
      "ults": 1328,
      "sc": 1329,
      "Ġconf": 1330,
      "ION": 1331,
      "ĠNe": 1332,
      "ected": 1333,
      "Ġagain": 1334,
      "ves": 1335,
      "strong": 1336,
      "lement": 1337,
      "ĠPre": 1338,
      "Ġest": 1339,
      "ify": 1340,
      "RO": 1341,
      "ĠShe": 1342,
      "ĠCar": 1343,
      "Ġwithout": 1344,
      "Ġshow": 1345,
      "Ġnumber": 1346,
      "Ġcost": 1347,
      "US": 1348,
      "ified": 1349,
      "ium": 1350,
      "Ġdays": 1351,
      "ivid": 1352,
      "aterial": 1353,
      "sp": 1354,
      "EC": 1355,
      "hor": 1356,
      "rol": 1357,
      "ved": 1358,
      "Ġ16": 1359,
      "25": 1360,
      "ai": 1361,
      "34": 1362,
      "ways": 1363,
      "Ġens": 1364,
      "Ġdist": 1365,
      "ĠFl": 1366,
      "ished": 1367,
      "Ġfeature": 1368,
      "ĠChe": 1369,
      "Ġ11": 1370,
      "ING": 1371,
      "ideo": 1372,
      "ott": 1373,
      "lish": 1374,
      "Ġwater": 1375,
      "gg": 1376,
      "Ġduring": 1377,
      "ences": 1378,
      "Ġreal": 1379,
      "Ġanal": 1380,
      "Ġref": 1381,
      "Ġapplic": 1382,
      "Ġ17": 1383,
      "aj": 1384,
      "Ġposs": 1385,
      "Ġpersonal": 1386,
      "AM": 1387,
      "ãĥ": 1388,
      "ince": 1389,
      "iversity": 1390,
      "Ġtest": 1391,
      "Ġfound": 1392,
      "inal": 1393,
      "ird": 1394,
      "aster": 1395,
      "ember": 1396,
      "'ll": 1397,
      "Ġwithin": 1398,
      "Ġcor": 1399,
      "ĠIm": 1400,
      "Ġproper": 1401,
      "**": 1402,
      "ister": 1403,
      "iving": 1404,
      "Ġstand": 1405,
      "IG": 1406,
      "Ġbre": 1407,
      "Ġweek": 1408,
      "Ġcond": 1409,
      "Ġpartic": 1410,
      "Ġfil": 1411,
      "ĠCent": 1412,
      "Ġeffect": 1413,
      "ask": 1414,
      "ina": 1415,
      "ĠMore": 1416,
      "ĠThese": 1417,
      "ĠThey": 1418,
      "Ġcert": 1419,
      "Ġsite": 1420,
      "Ġx": 1421,
      "ID": 1422,
      "Ġthink": 1423,
      "itional": 1424,
      "Ġ13": 1425,
      "ĠGu": 1426,
      ".,": 1427,
      "Ġinvest": 1428,
      "Ġchild": 1429,
      "ream": 1430,
      "ĠCo": 1431,
      "Ġclass": 1432,
      "Ġplace": 1433,
      "ĠWhen": 1434,
      "Ġreturn": 1435,
      "ering": 1436,
      "ĠTH": 1437,
      "Ġiss": 1438,
      "apt": 1439,
      "Ġaround": 1440,
      "ĠTra": 1441,
      "outh": 1442,
      "Ġorgan": 1443,
      "Ġ2022": 1444,
      "Ġdep": 1445,
      "Ġcontin": 1446,
      "Ġeng": 1447,
      "'ve": 1448,
      "Ġincre": 1449,
      "60": 1450,
      "ients": 1451,
      "iver": 1452,
      "ĠCan": 1453,
      "Ġinterest": 1454,
      "Ġview": 1455,
      "Ġ24": 1456,
      "RE": 1457,
      "ush": 1458,
      "min": 1459,
      "ĠPart": 1460,
      "Ġimpro": 1461,
      "Ġcompany": 1462,
      "Ġcookies": 1463,
      "ift": 1464,
      "ĠInst": 1465,
      "iron": 1466,
      "IL": 1467,
      "Ġgrow": 1468,
      "ĠRep": 1469,
      "aren": 1470,
      "AD": 1471,
      "ral": 1472,
      "Ġconn": 1473,
      "ĠMy": 1474,
      "ĠMe": 1475,
      "Ġindust": 1476,
      "ior": 1477,
      "icle": 1478,
      "Ġimportant": 1479,
      "olicy": 1480,
      "urity": 1481,
      "ocial": 1482,
      "Ġcontact": 1483,
      "ley": 1484,
      "ĠMar": 1485,
      "ĠAss": 1486,
      "Ġfull": 1487,
      "ĠÐ": 1488,
      "iam": 1489,
      "ipping": 1490,
      "Ġaff": 1491,
      "Ġfact": 1492,
      "The": 1493,
      "Ġpat": 1494,
      "ared": 1495,
      "port": 1496,
      "Ġexpl": 1497,
      "Ġcontent": 1498,
      "me": 1499,
      "Ġdirect": 1500,
      "ĠHealth": 1501,
      "Ġleg": 1502,
      "the": 1503,
      "ĠSearch": 1504,
      "ĠIN": 1505,
      "Ġactiv": 1506,
      "Ġlast": 1507,
      "Ġmonth": 1508,
      "ĠâĢĶ": 1509,
      "Ġcheck": 1510,
      "ense": 1511,
      "Ġpower": 1512,
      "Ġbook": 1513,
      "Ġoper": 1514,
      "Ġsaf": 1515,
      "ourn": 1516,
      "ined": 1517,
      "Ġterm": 1518,
      "ĠOff": 1519,
      "ique": 1520,
      "de": 1521,
      "ism": 1522,
      "Ġkeep": 1523,
      "OM": 1524,
      "ĠWorth": 1525,
      "Ġconsider": 1526,
      "Ġer": 1527,
      "ino": 1528,
      "ĠBu": 1529,
      "Ġproject": 1530,
      "Ġquest": 1531,
      "irl": 1532,
      "Ġemail": 1533,
      "Ġdid": 1534,
      "rist": 1535,
      "vers": 1536,
      "Ġ*": 1537,
      "ids": 1538,
      "Ġequ": 1539,
      "por": 1540,
      "Ġfeel": 1541,
      "ains": 1542,
      "ĠAt": 1543,
      "ĠFin": 1544,
      "ãĤ": 1545,
      "ividual": 1546,
      "Ġchang": 1547,
      "ĠSchool": 1548,
      "Ġrun": 1549,
      "ission": 1550,
      "Ġstr": 1551,
      "app": 1552,
      "ĠRec": 1553,
      "to": 1554,
      "Ġsupp": 1555,
      "word": 1556,
      "Ġ2024": 1557,
      "Ġvisit": 1558,
      "ĠAut": 1559,
      "Ġsmall": 1560,
      "Ġopen": 1561,
      "ently": 1562,
      "ration": 1563,
      "isk": 1564,
      "ills": 1565,
      "atter": 1566,
      "Ġ100": 1567,
      "26": 1568,
      "Ġlot": 1569,
      "80": 1570,
      "OL": 1571,
      "ĠDo": 1572,
      "Ġlevel": 1573,
      "Ġpage": 1574,
      "ror": 1575,
      "oney": 1576,
      "ĠGo": 1577,
      "Ġrest": 1578,
      "Ġcour": 1579,
      "Ġbuild": 1580,
      "Ġdev": 1581,
      "ecial": 1582,
      "Ġaddress": 1583,
      "'m": 1584,
      "etwork": 1585,
      "Ġcurrent": 1586,
      "Ġmet": 1587,
      "Ġalways": 1588,
      "uk": 1589,
      "Ġ2021": 1590,
      "ethod": 1591,
      "mber": 1592,
      "ple": 1593,
      "thing": 1594,
      "ung": 1595,
      "ĠIntern": 1596,
      "ĠMay": 1597,
      "55": 1598,
      "viron": 1599,
      "Ġhapp": 1600,
      "ately": 1601,
      "ane": 1602,
      "ĠStud": 1603,
      "Ġspecial": 1604,
      "Ġcap": 1605,
      "ources": 1606,
      "enef": 1607,
      "Ġunderstand": 1608,
      "pro": 1609,
      "ĠArt": 1610,
      "40": 1611,
      "aper": 1612,
      "OS": 1613,
      "Ġprom": 1614,
      "Ġlove": 1615,
      "yle": 1616,
      "Ġstill": 1617,
      "ĠPlease": 1618,
      "ĠAccess": 1619,
      "Ġallow": 1620,
      "Ġaccount": 1621,
      "ĠContact": 1622,
      "ittle": 1623,
      "Ġfew": 1624,
      "tain": 1625,
      "fect": 1626,
      "Ġpop": 1627,
      "aring": 1628,
      "ĠNot": 1629,
      "igital": 1630,
      "Ġcent": 1631,
      "Ġhim": 1632,
      "Ġintern": 1633,
      "Ġear": 1634,
      "Ġide": 1635,
      "ĠSec": 1636,
      "ĠTop": 1637,
      "Ġchar": 1638,
      "Ġ<": 1639,
      "duction": 1640,
      "by": 1641,
      "ced": 1642,
      "org": 1643,
      "Ġpurch": 1644,
      "ille": 1645,
      "ource": 1646,
      "Ġquality": 1647,
      "Ġ25": 1648,
      "ries": 1649,
      "urs": 1650,
      "OT": 1651,
      "search": 1652,
      "Ġemploy": 1653,
      "Ġlaw": 1654,
      "book": 1655,
      "ĠOne": 1656,
      "Ġpract": 1657,
      "ĠSub": 1658,
      "ips": 1659,
      "Ġthough": 1660,
      "Ġreview": 1661,
      "angu": 1662,
      "Ġreally": 1663,
      "Ġindividual": 1664,
      "Ġprofess": 1665,
      "70": 1666,
      "ĠÃĹ": 1667,
      "rop": 1668,
      "ĠPar": 1669,
      "Ġfollowing": 1670,
      "Ġproble": 1671,
      "Ġmult": 1672,
      "ĠDr": 1673,
      "Ġel": 1674,
      "Ġcase": 1675,
      "ury": 1676,
      "Ġname": 1677,
      "ĠCal": 1678,
      "enu": 1679,
      "Ġstore": 1680,
      "ances": 1681,
      "In": 1682,
      "Ġbuy": 1683,
      "bal": 1684,
      "à¥": 1685,
      "room": 1686,
      "Ġinclude": 1687,
      "Ġhttps": 1688,
      "Ġchange": 1689,
      "ides": 1690,
      "35": 1691,
      "St": 1692,
      "unic": 1693,
      "atural": 1694,
      "une": 1695,
      "Ġes": 1696,
      "Ġsure": 1697,
      "ret": 1698,
      "Ã©": 1699,
      "Ġhard": 1700,
      "uf": 1701,
      "Ð°": 1702,
      "ample": 1703,
      "anks": 1704,
      "____": 1705,
      "Ġbetter": 1706,
      "ales": 1707,
      "Ġnext": 1708,
      "ograph": 1709,
      "ending": 1710,
      "ired": 1711,
      "cial": 1712,
      "Ġpublic": 1713,
      "lete": 1714,
      "comm": 1715,
      "\":\"": 1716,
      "uck": 1717,
      "Ġpos": 1718,
      "Ġmaterial": 1719,
      "ĠFeb": 1720,
      "enn": 1721,
      "conom": 1722,
      "Ġplan": 1723,
      "ones": 1724,
      "illion": 1725,
      "redit": 1726,
      "ised": 1727,
      "Ġbased": 1728,
      "ĠEd": 1729,
      "Ġ50": 1730,
      "29": 1731,
      "med": 1732,
      "Ġtool": 1733,
      "Ġlink": 1734,
      "ĠWork": 1735,
      "Ġgoing": 1736,
      "ands": 1737,
      "ĠAg": 1738,
      "Ġcome": 1739,
      "cent": 1740,
      "ising": 1741,
      "Ġthree": 1742,
      "itor": 1743,
      "--------": 1744,
      "Ġfriend": 1745,
      "ĠProduct": 1746,
      "Ġresearch": 1747,
      "Ġconst": 1748,
      "fort": 1749,
      "Ġable": 1750,
      "ivery": 1751,
      "Ġmight": 1752,
      "Ġsever": 1753,
      "ĠUniversity": 1754,
      "Ġless": 1755,
      "ape": 1756,
      "ieve": 1757,
      "joy": 1758,
      "ĠAN": 1759,
      "ram": 1760,
      "atform": 1761,
      "loor": 1762,
      "Ġnon": 1763,
      "vironment": 1764,
      "Ġwrit": 1765,
      "gin": 1766,
      "ĠHigh": 1767,
      "Ġlim": 1768,
      "itc": 1769,
      "....": 1770,
      "ecess": 1771,
      "ancial": 1772,
      "Ġneeds": 1773,
      "Ġlive": 1774,
      "Ġmaking": 1775,
      "Ġworking": 1776,
      "vert": 1777,
      "ump": 1778,
      "21": 1779,
      "Ġwhe": 1780,
      "Ġkey": 1781,
      "ng": 1782,
      "utions": 1783,
      "ination": 1784,
      "ĠâĢ¢": 1785,
      "Ġoften": 1786,
      "ĠNews": 1787,
      "Ġold": 1788,
      "ocu": 1789,
      "Ġsay": 1790,
      "ĠSw": 1791,
      "usic": 1792,
      "rain": 1793,
      "ĠMon": 1794,
      "ring": 1795,
      "Ġfamily": 1796,
      "Ġschool": 1797,
      "uman": 1798,
      "ĠSm": 1799,
      "Ġstat": 1800,
      "Ġfac": 1801,
      "cription": 1802,
      "Ġthings": 1803,
      "IP": 1804,
      "for": 1805,
      "rive": 1806,
      "Ġexc": 1807,
      "ibility": 1808,
      "Ġgame": 1809,
      "ĠAbout": 1810,
      "ocus": 1811,
      "raw": 1812,
      "rows": 1813,
      "uro": 1814,
      "uture": 1815,
      "Ġ2020": 1816,
      "Ġtry": 1817,
      "istory": 1818,
      "Ġbig": 1819,
      "90": 1820,
      "Ġarea": 1821,
      "ĠMin": 1822,
      "yl": 1823,
      "Ġsearch": 1824,
      "Ġlooking": 1825,
      "Ġpot": 1826,
      "Ġanother": 1827,
      "Ġresults": 1828,
      "eed": 1829,
      "Ġplease": 1830,
      "ĠPer": 1831,
      "urg": 1832,
      "ively": 1833,
      "ĠRead": 1834,
      "Ġsoft": 1835,
      "ĠLog": 1836,
      "Ġgive": 1837,
      "ĠNow": 1838,
      "Ġcreate": 1839,
      "Ġtoo": 1840,
      "utes": 1841,
      "Ġste": 1842,
      "ris": 1843,
      "Ġhy": 1844,
      "ĠNY": 1845,
      "ental": 1846,
      "lock": 1847,
      "oud": 1848,
      "Ġpossible": 1849,
      "Ġphot": 1850,
      "Ġpresent": 1851,
      "Ġuser": 1852,
      "imate": 1853,
      "co": 1854,
      "irt": 1855,
      "Ġlocal": 1856,
      "Ġfood": 1857,
      "Ġmethod": 1858,
      "ething": 1859,
      "self": 1860,
      "ĠChrist": 1861,
      "Ġoptions": 1862,
      "ipp": 1863,
      "ags": 1864,
      "ĠTrans": 1865,
      "Ġtrad": 1866,
      "ober": 1867,
      "Ġoffers": 1868,
      "Ġfeatures": 1869,
      "95": 1870,
      "Ġocc": 1871,
      "Ġbenef": 1872,
      "atest": 1873,
      "ĠST": 1874,
      "do": 1875,
      "Ġmembers": 1876,
      "ended": 1877,
      "ĠJan": 1878,
      "not": 1879,
      "Ġcreat": 1880,
      "thers": 1881,
      "ĠAcc": 1882,
      "itive": 1883,
      "play": 1884,
      "fl": 1885,
      "Ġet": 1886,
      "OU": 1887,
      "Ġeasy": 1888,
      "Ġcertain": 1889,
      "Ġdem": 1890,
      "27": 1891,
      "Ġhead": 1892,
      "ĠFree": 1893,
      "Ġgl": 1894,
      "ada": 1895,
      "Ġve": 1896,
      "Ġfunction": 1897,
      "Ð¾": 1898,
      "ĠServices": 1899,
      "ball": 1900,
      "ĠUnited": 1901,
      "lev": 1902,
      "Ġlo": 1903,
      "ables": 1904,
      "clus": 1905,
      "Ġtyp": 1906,
      "ention": 1907,
      "ĠOut": 1908,
      "ope": 1909,
      "Ġstate": 1910,
      "Ġmeet": 1911,
      "lobal": 1912,
      "ĠOct": 1913,
      "son": 1914,
      "reet": 1915,
      "Ġtoday": 1916,
      "ĠTechn": 1917,
      "ords": 1918,
      "LE": 1919,
      "aff": 1920,
      "28": 1921,
      "Ġsing": 1922,
      "Ġbas": 1923,
      "Ġ21": 1924,
      "abor": 1925,
      "ification": 1926,
      "Ġtreat": 1927,
      "Ġbody": 1928,
      "ĠAct": 1929,
      "ĠJoh": 1930,
      "Ġ40": 1931,
      "Ġsize": 1932,
      "Ġreport": 1933,
      "ĠHowever": 1934,
      "ĠPrice": 1935,
      "sw": 1936,
      "inc": 1937,
      "Ġlearn": 1938,
      "www": 1939,
      "Ġsuccess": 1940,
      "ĠAc": 1941,
      "Ġvalue": 1942,
      "Ġlittle": 1943,
      "ĠSk": 1944,
      "Ġensure": 1945,
      "Ġwon": 1946,
      "ĠOF": 1947,
      "irc": 1948,
      "ze": 1949,
      "Ġ2018": 1950,
      "ĠFrom": 1951,
      "Ġsomething": 1952,
      "Ġcover": 1953,
      "ĠUp": 1954,
      "Ġcharact": 1955,
      "ording": 1956,
      "ived": 1957,
      "Ġrespons": 1958,
      "Ġvers": 1959,
      "75": 1960,
      "ĠPerson": 1961,
      "Ġsex": 1962,
      "ĠEl": 1963,
      "aging": 1964,
      "cy": 1965,
      "Ġsince": 1966,
      "ĠDown": 1967,
      "wards": 1968,
      "oid": 1969,
      "obile": 1970,
      "Ġlog": 1971,
      "Ġvarious": 1972,
      "Ġtem": 1973,
      "ference": 1974,
      "49": 1975,
      "Ġupd": 1976,
      "Ġpain": 1977,
      "Ġperfect": 1978,
      "rivacy": 1979,
      "33": 1980,
      "par": 1981,
      "roll": 1982,
      "Ġresult": 1983,
      "ĠTy": 1984,
      "Ġlarge": 1985,
      "ĠTHE": 1986,
      "lished": 1987,
      "ysis": 1988,
      "Ġbo": 1989,
      "âĢĶâĢĶ": 1990,
      "Ġeduc": 1991,
      "\",": 1992,
      "iven": 1993,
      "Ġenjoy": 1994,
      "Ġess": 1995,
      "ĠThat": 1996,
      "ideos": 1997,
      "Ġpack": 1998,
      "Ġbro": 1999,
      "Ġcollect": 2000,
      "ilities": 2001,
      "Ġpoint": 2002,
      "Ġput": 2003,
      "eter": 2004,
      "eral": 2005,
      "Ġbelow": 2006,
      "ĠDel": 2007,
      "idd": 2008,
      "itle": 2009,
      "ĠGet": 2010,
      "Ġpol": 2011,
      "atic": 2012,
      "Ġkind": 2013,
      "aim": 2014,
      "Ġident": 2015,
      "Ġmeans": 2016,
      "ĠCount": 2017,
      "Ġacross": 2018,
      "aces": 2019,
      "ĠService": 2020,
      "</": 2021,
      "Ġitems": 2022,
      "ured": 2023,
      "Ġtype": 2024,
      "duce": 2025,
      "ots": 2026,
      "Ġvol": 2027,
      "iting": 2028,
      "ĠSouth": 2029,
      "ĠOf": 2030,
      "ergy": 2031,
      "Ġsocial": 2032,
      "ilt": 2033,
      "resent": 2034,
      "ĠBusiness": 2035,
      "Ġseveral": 2036,
      "iod": 2037,
      "\",\"": 2038,
      "Ġnever": 2039,
      "ĠDis": 2040,
      "Ġask": 2041,
      "Ġselect": 2042,
      "ibr": 2043,
      "ners": 2044,
      "Ġimprove": 2045,
      "CH": 2046,
      "Ġclean": 2047,
      "Ġlight": 2048,
      "Ġshare": 2049,
      "Ġlet": 2050,
      "Ġdevelopment": 2051,
      "Ġplatform": 2052,
      "ole": 2053,
      "ĠAv": 2054,
      "Ġren": 2055,
      "ux": 2056,
      "icult": 2057,
      "ĠPM": 2058,
      "Ġfocus": 2059,
      "ĠMod": 2060,
      "rict": 2061,
      "Ġann": 2062,
      "Ġsecond": 2063,
      "Ġconc": 2064,
      "Ġtimes": 2065,
      "Ġevent": 2066,
      "ĠAmerican": 2067,
      "irm": 2068,
      "Ġcontrol": 2069,
      "vern": 2070,
      "ĠCare": 2071,
      "ĠTw": 2072,
      "Ġopport": 2073,
      "Ġlow": 2074,
      "Ġdetails": 2075,
      "Ġ@": 2076,
      "ĠEv": 2077,
      "ecessary": 2078,
      "45": 2079,
      "Ġcommunity": 2080,
      "pect": 2081,
      "Ġbecome": 2082,
      "che": 2083,
      "ĠGe": 2084,
      "place": 2085,
      "Ðµ": 2086,
      "Ġbeaut": 2087,
      "EM": 2088,
      "98": 2089,
      "Ġcommon": 2090,
      "ĠBlack": 2091,
      "Ġindustry": 2092,
      "eds": 2093,
      "part": 2094,
      "ðŁ": 2095,
      "ĠPol": 2096,
      "Ġinstall": 2097,
      "Ġsw": 2098,
      "65": 2099,
      "Ġmov": 2100,
      "Ġvideo": 2101,
      "vious": 2102,
      "AP": 2103,
      "Ġfuture": 2104,
      "ĠDay": 2105,
      "Ġwhy": 2106,
      "Ġsit": 2107,
      "Ġweb": 2108,
      "Ġà¤": 2109,
      "ENT": 2110,
      "Ġlik": 2111,
      "Ġspace": 2112,
      "ĠBook": 2113,
      "Ġbeh": 2114,
      "ĠNorth": 2115,
      "Ġspecific": 2116,
      "Ġperformance": 2117,
      "Ġdue": 2118,
      "ster": 2119,
      "ators": 2120,
      "til": 2121,
      "Ġrange": 2122,
      "Ġz": 2123,
      "bl": 2124,
      "Ġpress": 2125,
      "Ġrecomm": 2126,
      "Ġstep": 2127,
      "Ġusers": 2128,
      "ĠInter": 2129,
      "Ġwin": 2130,
      "Ġdi": 2131,
      "ĠInformation": 2132,
      "eg": 2133,
      "anies": 2134,
      "Ġcard": 2135,
      "Ġelect": 2136,
      "ana": 2137,
      "ably": 2138,
      "Ġcomb": 2139,
      "Ġmoney": 2140,
      "rial": 2141,
      "opy": 2142,
      "anced": 2143,
      "aps": 2144,
      "augh": 2145,
      "Ġmanagement": 2146,
      "ĠSer": 2147,
      "ĠJohn": 2148,
      "44": 2149,
      "Ġcredit": 2150,
      "Ġrequest": 2151,
      "Ġfloor": 2152,
      "ĠJu": 2153,
      "aus": 2154,
      "ĠDep": 2155,
      "ulation": 2156,
      "Ġstruct": 2157,
      "Ġchildren": 2158,
      "tic": 2159,
      "ufact": 2160,
      "now": 2161,
      "Ġtoget": 2162,
      "Ġtogether": 2163,
      "ĠRem": 2164,
      "Ġclick": 2165,
      "Ġ2019": 2166,
      "uter": 2167,
      "ST": 2168,
      "Ġfund": 2169,
      "Ġcal": 2170,
      "ĠPA": 2171,
      "ĠGl": 2172,
      "Ġtax": 2173,
      "200": 2174,
      "arr": 2175,
      "elling": 2176,
      "ĠAM": 2177,
      "icro": 2178,
      "uary": 2179,
      "iles": 2180,
      "ĠOver": 2181,
      "ches": 2182,
      "ett": 2183,
      "avor": 2184,
      "38": 2185,
      "urther": 2186,
      "Ġaway": 2187,
      "ĠRet": 2188,
      "Ġrisk": 2189,
      "Ġstrateg": 2190,
      "ĠHere": 2191,
      "Ġparticular": 2192,
      "Ġenvironment": 2193,
      "ĠWest": 2194,
      "Ġmeas": 2195,
      "Ġprovides": 2196,
      "Ġstock": 2197,
      "osed": 2198,
      "!!": 2199,
      "IM": 2200,
      "na": 2201,
      "Ð¸": 2202,
      "uff": 2203,
      "Ġorig": 2204,
      "Ġ2016": 2205,
      "48": 2206,
      "ĠPark": 2207,
      "Ġnear": 2208,
      "ĠLoc": 2209,
      "Ġgovern": 2210,
      "Ġsecurity": 2211,
      "Ġdate": 2212,
      "Ġpast": 2213,
      "Ġfore": 2214,
      "ĠClass": 2215,
      "ajor": 2216,
      "anguage": 2217,
      "ried": 2218,
      "AG": 2219,
      "ke": 2220,
      "icial": 2221,
      "mm": 2222,
      "wh": 2223,
      "ruary": 2224,
      "Ġconditions": 2225,
      "Ġcustomers": 2226,
      "Ġsignific": 2227,
      "ville": 2228,
      "OP": 2229,
      "Ġfront": 2230,
      "Ġpotential": 2231,
      "aur": 2232,
      "idence": 2233,
      "ĠDec": 2234,
      "ĠWorld": 2235,
      "rior": 2236,
      "Ġauthor": 2237,
      "Ġ=>": 2238,
      "Ġhaving": 2239,
      "Ġquick": 2240,
      "Ġroom": 2241,
      "Ġtrack": 2242,
      "crib": 2243,
      "asing": 2244,
      "36": 2245,
      "ĠDet": 2246,
      "ĠAug": 2247,
      "Ġthird": 2248,
      "mit": 2249,
      "ĠCor": 2250,
      "unities": 2251,
      "Ġothers": 2252,
      "back": 2253,
      "ĠProgram": 2254,
      "IV": 2255,
      "Th": 2256,
      "ara": 2257,
      "ĠMem": 2258,
      "ĠVal": 2259,
      "ĠSte": 2260,
      "ads": 2261,
      "ĠFebruary": 2262,
      "ĠAf": 2263,
      "Ġcompet": 2264,
      "Ġdom": 2265,
      "ĠAfter": 2266,
      "ither": 2267,
      "ĠCH": 2268,
      "ĠApr": 2269,
      "ĠPe": 2270,
      "Ġ22": 2271,
      "37": 2272,
      "aid": 2273,
      "Ġvia": 2274,
      "Ġexample": 2275,
      "Ġappear": 2276,
      "time": 2277,
      "Ġside": 2278,
      "Ġcourse": 2279,
      "Ġcustomer": 2280,
      "ĠSign": 2281,
      "ĠDate": 2282,
      "39": 2283,
      "ĠCle": 2284,
      "ĠBar": 2285,
      "icated": 2286,
      "Ġmach": 2287,
      "ĠCity": 2288,
      "Ġstudents": 2289,
      "Ġfre": 2290,
      "ĠInt": 2291,
      "ĠUse": 2292,
      "urance": 2293,
      "ding": 2294,
      "Ġmakes": 2295,
      "Ġmove": 2296,
      "Ġinvol": 2297,
      "ĠBack": 2298,
      "iple": 2299,
      "Ġport": 2300,
      "Ġagainst": 2301,
      "Ġtechnology": 2302,
      "oints": 2303,
      "Ġsystems": 2304,
      "minist": 2305,
      "ä¸": 2306,
      "face": 2307,
      "Ġprovided": 2308,
      "66": 2309,
      "Ġhot": 2310,
      "Ġnews": 2311,
      "IR": 2312,
      "Ġturn": 2313,
      "ĠWill": 2314,
      "raft": 2315,
      "duced": 2316,
      "ĠBest": 2317,
      "ĠDon": 2318,
      "Ġfield": 2319,
      "ored": 2320,
      "01": 2321,
      "ĠGener": 2322,
      "Ġcode": 2323,
      "Ġunique": 2324,
      "come": 2325,
      "Ġknown": 2326,
      "ready": 2327,
      "ders": 2328,
      "ops": 2329,
      "Ġdeal": 2330,
      "ipment": 2331,
      "ĠSE": 2332,
      "ĠEuro": 2333,
      "Ġgroup": 2334,
      "ruction": 2335,
      "amb": 2336,
      "Ġengine": 2337,
      "OW": 2338,
      "ÑĤ": 2339,
      "pper": 2340,
      "ĠSept": 2341,
      "Ġmind": 2342,
      "Ġdam": 2343,
      "cm": 2344,
      "atory": 2345,
      "Ġreceive": 2346,
      "Ġhours": 2347,
      "Ġrequired": 2348,
      "ĠAre": 2349,
      "rivate": 2350,
      "Ġautom": 2351,
      "sel": 2352,
      "Ġmodel": 2353,
      "ony": 2354,
      "Ġnetwork": 2355,
      "88": 2356,
      "UN": 2357,
      "Ġmark": 2358,
      "Ġgot": 2359,
      "ires": 2360,
      "ĠSol": 2361,
      "ogle": 2362,
      "ĠProf": 2363,
      "Ġsubject": 2364,
      "Ġabove": 2365,
      "tal": 2366,
      "ĠCons": 2367,
      "aged": 2368,
      "Ġâŀ": 2369,
      "Ġcr": 2370,
      "ĠLaw": 2371,
      "izing": 2372,
      "Ġnatural": 2373,
      "Ġtext": 2374,
      "ici": 2375,
      "ĠForm": 2376,
      "ĠDownload": 2377,
      "oo": 2378,
      "ĠOther": 2379,
      "ault": 2380,
      "ees": 2381,
      "Ġoption": 2382,
      "icient": 2383,
      "Ġbrows": 2384,
      "ĠOnline": 2385,
      "agn": 2386,
      "Ġdelivery": 2387,
      "Ġstrong": 2388,
      "Ġdr": 2389,
      "Ġperiod": 2390,
      "Ġcountry": 2391,
      "Ġchanges": 2392,
      "Ġfinancial": 2393,
      "Ġcult": 2394,
      "ĠBro": 2395,
      "77": 2396,
      "Ġreason": 2397,
      "isting": 2398,
      "Ġ28": 2399,
      "Ġessential": 2400,
      "ĠBra": 2401,
      "ĠRel": 2402,
      "Ġâŀ¡": 2403,
      "HA": 2404,
      "Ġalong": 2405,
      "ĠWater": 2406,
      "ogn": 2407,
      "li": 2408,
      "arning": 2409,
      "ĠAdv": 2410,
      "Ġexperi": 2411,
      "ĠSun": 2412,
      "ili": 2413,
      "Ġsignificant": 2414,
      "Ġcomes": 2415,
      "cle": 2416,
      "Ġpub": 2417,
      "Ġfour": 2418,
      "Ġdone": 2419,
      "ĠWeb": 2420,
      "Ġ2017": 2421,
      "Ġprofessional": 2422,
      "TS": 2423,
      "Ġimpact": 2424,
      "ĠDesign": 2425,
      "ĠAccessories": 2426,
      "Ġwhether": 2427,
      "itted": 2428,
      "Ġdiscuss": 2429,
      "Ġ{": 2430,
      "ude": 2431,
      "ued": 2432,
      "Ġaddition": 2433,
      "31": 2434,
      "ĠChar": 2435,
      "Ġquestions": 2436,
      "za": 2437,
      "Ġconnect": 2438,
      "iful": 2439,
      "Ġpopular": 2440,
      "alf": 2441,
      "Ġcomplet": 2442,
      "Ġissues": 2443,
      "ilar": 2444,
      "ĠHer": 2445,
      "ĠCenter": 2446,
      "Ġshipping": 2447,
      "Ġchall": 2448,
      "Ġcompanies": 2449,
      "umb": 2450,
      "astic": 2451,
      "outs": 2452,
      "ĠCustom": 2453,
      "ĠMarch": 2454,
      "ĠStates": 2455,
      "orage": 2456,
      "Ġdocu": 2457,
      "aker": 2458,
      "ĠInc": 2459,
      "ĠÂ£": 2460,
      "Ġtalk": 2461,
      "ledge": 2462,
      "UL": 2463,
      "Ġdigital": 2464,
      "ĠCheck": 2465,
      "Ġwomen": 2466,
      "ĠPolicy": 2467,
      "ume": 2468,
      "Ġenc": 2469,
      "Ġterms": 2470,
      "itch": 2471,
      "Ġeconom": 2472,
      "Ġjob": 2473,
      "ãĢ": 2474,
      "verage": 2475,
      "Ġitem": 2476,
      "avig": 2477,
      "ĠEnglish": 2478,
      "Ġboard": 2479,
      "Ġ23": 2480,
      "ĠKey": 2481,
      "iday": 2482,
      "ivity": 2483,
      "Ġalready": 2484,
      "AB": 2485,
      "itter": 2486,
      "ĠSystem": 2487,
      "Ġcompl": 2488,
      "rypt": 2489,
      "OD": 2490,
      "ĠDisc": 2491,
      "ĠPlay": 2492,
      "uation": 2493,
      "ĠJuly": 2494,
      "Ġaud": 2495,
      "Ġcart": 2496,
      "Ġmess": 2497,
      "Ġut": 2498,
      "47": 2499,
      "Ġuntil": 2500,
      "Ġnecessary": 2501,
      "Ġgames": 2502,
      "ules": 2503,
      "ĠOrgan": 2504,
      "Ġcross": 2505,
      "Ġland": 2506,
      "Ġcomplete": 2507,
      "Ġrelations": 2508,
      "Ġfar": 2509,
      "ĠâĤ": 2510,
      "Ġcorre": 2511,
      "46": 2512,
      "OV": 2513,
      "arget": 2514,
      "Ġair": 2515,
      "Ġever": 2516,
      "Ġshort": 2517,
      "97": 2518,
      "ger": 2519,
      "Ġyet": 2520,
      "ams": 2521,
      "ĠJune": 2522,
      "Ġsuper": 2523,
      "ĠPhot": 2524,
      "Ġsoftware": 2525,
      "Ġseason": 2526,
      "ĠSale": 2527,
      "ĠRed": 2528,
      "ĠHol": 2529,
      "mercial": 2530,
      "ĠEurope": 2531,
      "most": 2532,
      "rem": 2533,
      "Ġcomfort": 2534,
      "Ġpurchase": 2535,
      "Ġchoose": 2536,
      "resh": 2537,
      "Ġcommunic": 2538,
      "hib": 2539,
      "ĠAust": 2540,
      "ĠResearch": 2541,
      "ule": 2542,
      "rew": 2543,
      "ĠTod": 2544,
      "Ġmean": 2545,
      "Ġadditional": 2546,
      "Ġcases": 2547,
      "ĠFace": 2548,
      "right": 2549,
      "Ġaccept": 2550,
      "Ġclear": 2551,
      "):": 2552,
      "rip": 2553,
      "fully": 2554,
      "Ġdesigned": 2555,
      "ĠAND": 2556,
      "Ġla": 2557,
      "Ġey": 2558,
      "Ġcontain": 2559,
      "Ġgirl": 2560,
      "Ġproperty": 2561,
      "ager": 2562,
      "Ġincludes": 2563,
      "cember": 2564,
      "Ġmajor": 2565,
      "Ġsingle": 2566,
      "Ġyoung": 2567,
      "ĠShow": 2568,
      "ouch": 2569,
      "ĠDirect": 2570,
      "Ġ26": 2571,
      "ĠInternational": 2572,
      "ele": 2573,
      "ham": 2574,
      "Ġoil": 2575,
      "ĠPort": 2576,
      "illed": 2577,
      "Ġsteel": 2578,
      "Ð½": 2579,
      "Ġmillion": 2580,
      "ĠData": 2581,
      "IF": 2582,
      "ched": 2583,
      "Ġline": 2584,
      "Ġvi": 2585,
      "Ġleft": 2586,
      "val": 2587,
      "02": 2588,
      "ci": 2589,
      "aced": 2590,
      "Ġ)": 2591,
      "Ġcas": 2592,
      "Ġanim": 2593,
      "oman": 2594,
      "apan": 2595,
      "ĠMarket": 2596,
      "Ġ27": 2597,
      "unch": 2598,
      "ĠType": 2599,
      "ĠMet": 2600,
      "cast": 2601,
      "alt": 2602,
      "Ġhuman": 2603,
      "nov": 2604,
      "Ġfile": 2605,
      "ender": 2606,
      "ead": 2607,
      "my": 2608,
      "Ġapply": 2609,
      "Ġtraining": 2610,
      "Ġamount": 2611,
      "Ġdeliver": 2612,
      "Ġmedia": 2613,
      "Ġmonths": 2614,
      "Ġproblem": 2615,
      "Ġage": 2616,
      "ening": 2617,
      "ĠCour": 2618,
      "Ġanalysis": 2619,
      "Ġgiven": 2620,
      "Ġimplement": 2621,
      "ĠRE": 2622,
      "Ġcoll": 2623,
      "Ġslot": 2624,
      "aste": 2625,
      "ĠLear": 2626,
      "ĠPat": 2627,
      "Ch": 2628,
      "Ġ29": 2629,
      "ĠHot": 2630,
      "Ġconsum": 2631,
      "Ġdeterm": 2632,
      "go": 2633,
      "lu": 2634,
      "32": 2635,
      "Ġach": 2636,
      "erc": 2637,
      "ube": 2638,
      "Ġobject": 2639,
      "05": 2640,
      "ĠHar": 2641,
      "Ġmom": 2642,
      "Ġcannot": 2643,
      "ĠReview": 2644,
      "ĠOctober": 2645,
      "ĠSeptember": 2646,
      "gel": 2647,
      "ĠEst": 2648,
      "Ġleast": 2649,
      "ef": 2650,
      "artment": 2651,
      "rown": 2652,
      "UM": 2653,
      "pecial": 2654,
      "Ġapplication": 2655,
      "ĠNational": 2656,
      "ming": 2657,
      "ĠDecember": 2658,
      "yd": 2659,
      "ĠStreet": 2660,
      "PS": 2661,
      "ĠState": 2662,
      "}}": 2663,
      "Ġsum": 2664,
      "ĠWhile": 2665,
      "Ġgetting": 2666,
      "Ġhouse": 2667,
      "ades": 2668,
      "pose": 2669,
      "ief": 2670,
      "Ġcalled": 2671,
      "Ġstandard": 2672,
      "Ġ/>": 2673,
      "ERS": 2674,
      "ered": 2675,
      "Ġphys": 2676,
      "put": 2677,
      "IA": 2678,
      "oon": 2679,
      "Ġmusic": 2680,
      "ĠDav": 2681,
      "ray": 2682,
      "urb": 2683,
      "ĠList": 2684,
      "osp": 2685,
      "ression": 2686,
      "Ġparen": 2687,
      "Ġprevent": 2688,
      "Ġcut": 2689,
      "ĠâĨ": 2690,
      "Ġhold": 2691,
      "Ġpolicy": 2692,
      "ounds": 2693,
      "Ġbring": 2694,
      "yt": 2695,
      "ĠSome": 2696,
      "EW": 2697,
      "Ġcharacter": 2698,
      "UT": 2699,
      "Ġblog": 2700,
      "ĠApril": 2701,
      "Ġvariety": 2702,
      "ĠJanuary": 2703,
      "Ġpaper": 2704,
      "Ġfurther": 2705,
      "leg": 2706,
      "adem": 2707,
      "ds": 2708,
      "lege": 2709,
      "ache": 2710,
      "ĠGold": 2711,
      "Ġcrit": 2712,
      "aby": 2713,
      "ĠÂ·": 2714,
      "Ġsimple": 2715,
      "XX": 2716,
      "Ġjourn": 2717,
      "Ġlatest": 2718,
      "ĠHel": 2719,
      "Ġarticle": 2720,
      "ler": 2721,
      "ney": 2722,
      "ĠSC": 2723,
      "Ġenh": 2724,
      "ĠAir": 2725,
      "ĠMr": 2726,
      "aken": 2727,
      "ĠFirst": 2728,
      "Ġallows": 2729,
      "reg": 2730,
      "ĠTest": 2731,
      "Ġworks": 2732,
      "Ñģ": 2733,
      "rest": 2734,
      "oring": 2735,
      "Ġlarg": 2736,
      "Ġprior": 2737,
      "imum": 2738,
      "ĠStart": 2739,
      "Ġcity": 2740,
      "ilit": 2741,
      "action": 2742,
      "Ġdiff": 2743,
      "Ġrelationship": 2744,
      "ti": 2745,
      "ese": 2746,
      "Ġemb": 2747,
      "Ġonce": 2748,
      "ĠSim": 2749,
      "Ġfall": 2750,
      "mission": 2751,
      "ĠDevelop": 2752,
      "aries": 2753,
      "ĠShop": 2754,
      "Ġparts": 2755,
      "We": 2756,
      "board": 2757,
      "Ġassist": 2758,
      "icles": 2759,
      "ĠGod": 2760,
      "Ġstudy": 2761,
      "Ġ--": 2762,
      "head": 2763,
      "Ġsend": 2764,
      "Ġfit": 2765,
      "ÑĢ": 2766,
      "Ġpayment": 2767,
      "Ġthing": 2768,
      "ouble": 2769,
      "ĠEduc": 2770,
      "ĠEngine": 2771,
      "Ġincrease": 2772,
      "06": 2773,
      "ison": 2774,
      "Ġbegin": 2775,
      "ĠLast": 2776,
      "ĠOpen": 2777,
      "ĠIns": 2778,
      "RA": 2779,
      "ha": 2780,
      "Ġeverything": 2781,
      "ĠGoogle": 2782,
      "Ġtools": 2783,
      "\".": 2784,
      "dy": 2785,
      "Ġful": 2786,
      "Ġassoci": 2787,
      "ĠPay": 2788,
      "olution": 2789,
      "âĢĵ": 2790,
      "Ġmanufact": 2791,
      "Ġeither": 2792,
      "Ġgrowth": 2793,
      "egr": 2794,
      "ĠAL": 2795,
      "Ġago": 2796,
      "Ġparticip": 2797,
      "CE": 2798,
      "Ġsat": 2799,
      "Ġwind": 2800,
      "ply": 2801,
      "Ġareas": 2802,
      "Ġenergy": 2803,
      "ensive": 2804,
      "Ġintegr": 2805,
      "Ġbeautiful": 2806,
      "ATION": 2807,
      "ĠWhite": 2808,
      "Ġstory": 2809,
      "pecially": 2810,
      "Ġhistory": 2811,
      "ĠYork": 2812,
      "Ġprotect": 2813,
      "Ġmat": 2814,
      "ĠEast": 2815,
      "Ġenough": 2816,
      "ging": 2817,
      "amer": 2818,
      "Ġflow": 2819,
      "based": 2820,
      "htt": 2821,
      "osing": 2822,
      "ĠVis": 2823,
      "85": 2824,
      "bon": 2825,
      "Ġred": 2826,
      "Ġ31": 2827,
      "quir": 2828,
      "Ġregard": 2829,
      "cript": 2830,
      "Ġrecord": 2831,
      "Ġinit": 2832,
      "Ġdevice": 2833,
      "ĠSl": 2834,
      "ĠDom": 2835,
      "96": 2836,
      "ĠCompany": 2837,
      "medi": 2838,
      "rror": 2839,
      "ĠTerm": 2840,
      "ival": 2841,
      "Ð¾Ð": 2842,
      "ma": 2843,
      "Ġå": 2844,
      "Ġcell": 2845,
      "Ġwalk": 2846,
      "ĠAmerica": 2847,
      "Ġcontinue": 2848,
      "Ġrecommend": 2849,
      "oph": 2850,
      "ength": 2851,
      "SS": 2852,
      "Ġpropos": 2853,
      "ĠYear": 2854,
      "Ġamong": 2855,
      ",'": 2856,
      "Ġlater": 2857,
      "fr": 2858,
      "Ġstay": 2859,
      "ĠJust": 2860,
      "cer": 2861,
      "Ġrequirements": 2862,
      "off": 2863,
      "change": 2864,
      "Ġrepresent": 2865,
      "ĠAugust": 2866,
      "ĠPublic": 2867,
      "Ġgen": 2868,
      "venue": 2869,
      "Ġwa": 2870,
      "umber": 2871,
      "Ġminutes": 2872,
      "Ġoptim": 2873,
      "Ġhol": 2874,
      "Ġeducation": 2875,
      "net": 2876,
      "izes": 2877,
      "aul": 2878,
      "Ġsle": 2879,
      "oice": 2880,
      "Ġclaim": 2881,
      "Ġearly": 2882,
      "arant": 2883,
      "elt": 2884,
      "ĠFun": 2885,
      "Ġclose": 2886,
      "aching": 2887,
      "iance": 2888,
      "Ġplants": 2889,
      "ny": 2890,
      "ĠRoad": 2891,
      "Ġadded": 2892,
      "Ġu": 2893,
      "Ġcontract": 2894,
      "Ġdownload": 2895,
      "ĠScience": 2896,
      "ĠGroup": 2897,
      "Ġhttp": 2898,
      "100": 2899,
      "hi": 2900,
      "Ġtreatment": 2901,
      "Ġespecially": 2902,
      "Ġansw": 2903,
      "EST": 2904,
      "ĠManagement": 2905,
      "just": 2906,
      "Ġrate": 2907,
      "Ġskin": 2908,
      "oe": 2909,
      "ama": 2910,
      "ĠElect": 2911,
      "ounts": 2912,
      "Ġmember": 2913,
      "Ġindividuals": 2914,
      "Ġcaus": 2915,
      "ĠHouse": 2916,
      "ĠJack": 2917,
      "ĠSee": 2918,
      "Ġactually": 2919,
      "Ġblack": 2920,
      "Ġsimilar": 2921,
      "weet": 2922,
      "zz": 2923,
      "ests": 2924,
      "Ġmaintain": 2925,
      "ĠMost": 2926,
      "aving": 2927,
      "Ġtravel": 2928,
      "ĠSP": 2929,
      "idge": 2930,
      "ĠEqu": 2931,
      "Ġgeneral": 2932,
      "ĠMark": 2933,
      "...]": 2934,
      "Ġversion": 2935,
      "Ġ2010": 2936,
      "Ġaction": 2937,
      "Ġprob": 2938,
      "Ġspecies": 2939,
      "ĠSpecial": 2940,
      "Ġproviding": 2941,
      "ji": 2942,
      "erap": 2943,
      "Ġrelated": 2944,
      "vin": 2945,
      "ĠPres": 2946,
      "Ġclients": 2947,
      "Ġcollection": 2948,
      "ĠSil": 2949,
      "aily": 2950,
      "ava": 2951,
      "Ġbrand": 2952,
      "Ġmaterials": 2953,
      "iter": 2954,
      "Ġdeg": 2955,
      "ĠBlue": 2956,
      "ĠSupport": 2957,
      "Ġseries": 2958,
      "amic": 2959,
      "Ġbenefits": 2960,
      "Ġsens": 2961,
      "ĠLa": 2962,
      "ford": 2963,
      "Ġevents": 2964,
      "oes": 2965,
      "Ġexam": 2966,
      "Ġcosts": 2967,
      "Ġtypes": 2968,
      "ĠPower": 2969,
      "ĠðŁ": 2970,
      "Ġrespect": 2971,
      "ĠPlan": 2972,
      "rap": 2973,
      "Ġwhite": 2974,
      "istics": 2975,
      "Ġtrue": 2976,
      "Ġmar": 2977,
      "ĠLeg": 2978,
      "003": 2979,
      "ovember": 2980,
      "Ġways": 2981,
      "ustain": 2982,
      "Ġshall": 2983,
      "Ġbelieve": 2984,
      "Ġactivities": 2985,
      "Ġnight": 2986,
      "Ġstyle": 2987,
      "Ġabs": 2988,
      "Ġparty": 2989,
      "Ġbar": 2990,
      "ĠSaf": 2991,
      "ĠTO": 2992,
      "ĠFam": 2993,
      "order": 2994,
      "ĠIsland": 2995,
      "ĠAssoci": 2996,
      "Ġmultiple": 2997,
      "Ġdoing": 2998,
      "ĠArch": 2999,
      "ae": 3000,
      "Ġsites": 3001,
      "Ġsym": 3002,
      "Ġpick": 3003,
      "Ġfast": 3004,
      "ĠJapan": 3005,
      "ĠReal": 3006,
      "ĠAnal": 3007,
      "Sh": 3008,
      "TM": 3009,
      "Ġcharg": 3010,
      "Ġ[...]": 3011,
      "Ġestab": 3012,
      "=\"": 3013,
      "SB": 3014,
      "lements": 3015,
      "Ġjoin": 3016,
      "Ġresources": 3017,
      "Ġsafe": 3018,
      "Ġgovernment": 3019,
      "ĠShare": 3020,
      "Ġinsp": 3021,
      "CC": 3022,
      "ĠSelect": 3023,
      "ĠRegular": 3024,
      "Ġglobal": 3025,
      "Ġknowledge": 3026,
      "light": 3027,
      "su": 3028,
      "Ġprefer": 3029,
      "Ġsafety": 3030,
      "Ġextra": 3031,
      "Ġcirc": 3032,
      "Ġhost": 3033,
      "Ġ2015": 3034,
      "Ġsection": 3035,
      "ĠStat": 3036,
      "Ġself": 3037,
      "urch": 3038,
      "ĠVideo": 3039,
      "Ġcondition": 3040,
      "ml": 3041,
      "ĠMain": 3042,
      "ĠBig": 3043,
      "ĠUK": 3044,
      "ological": 3045,
      "IH": 3046,
      "Ġseen": 3047,
      "Ġlegal": 3048,
      "Ġbrowser": 3049,
      "Ġregular": 3050,
      "ils": 3051,
      "ĠStand": 3052,
      "LA": 3053,
      "Ġcur": 3054,
      "Ġnavig": 3055,
      "Ġfoot": 3056,
      "Ġyourself": 3057,
      "ĠÎ": 3058,
      "Ġmobile": 3059,
      "ĠInv": 3060,
      "Ġquestion": 3061,
      "lin": 3062,
      "Ġtotal": 3063,
      "Ġetc": 3064,
      "ĠFacebook": 3065,
      "07": 3066,
      "Ã¤": 3067,
      "ĠTime": 3068,
      "Ġsubs": 3069,
      "iece": 3070,
      "Ġpoints": 3071,
      "ension": 3072,
      "Ġbuilding": 3073,
      "Error": 3074,
      "SE": 3075,
      "ael": 3076,
      "Ġregister": 3077,
      "Ġmarketing": 3078,
      "Ġ\\": 3079,
      "ecut": 3080,
      "Ġhowever": 3081,
      "opping": 3082,
      "ĠDist": 3083,
      "ums": 3084,
      "Ġprep": 3085,
      "Ġoriginal": 3086,
      "selves": 3087,
      "à¥į": 3088,
      "Ġfriends": 3089,
      "ĠAfric": 3090,
      "ĠEvery": 3091,
      "Ġcomment": 3092,
      "TH": 3093,
      "cul": 3094,
      "ged": 3095,
      "Ġbott": 3096,
      "Ġuses": 3097,
      "itte": 3098,
      "ĠNovember": 3099,
      "Ġrights": 3100,
      "azing": 3101,
      "Ġsett": 3102,
      "Ġready": 3103,
      "ises": 3104,
      "ĠCall": 3105,
      "ĠRich": 3106,
      "Ġlearning": 3107,
      "Ġwhole": 3108,
      "ĠProducts": 3109,
      "elebr": 3110,
      "ĠQuick": 3111,
      "ĠCounty": 3112,
      "ica": 3113,
      "ĠLink": 3114,
      "Ġ2013": 3115,
      "Ġoffice": 3116,
      "Ġveh": 3117,
      "Ġmachine": 3118,
      "56": 3119,
      "Ġmen": 3120,
      "ĠSch": 3121,
      "ĠHand": 3122,
      "ements": 3123,
      "ĠKing": 3124,
      "iction": 3125,
      "Ġposition": 3126,
      "ĠGeneral": 3127,
      "oved": 3128,
      "oom": 3129,
      "inter": 3130,
      "mail": 3131,
      "Ġobs": 3132,
      "etimes": 3133,
      "Ġdog": 3134,
      "ĠClick": 3135,
      "Ġproduction": 3136,
      "Ġsoon": 3137,
      "Ġstarted": 3138,
      "den": 3139,
      "Ġface": 3140,
      "Ġfavor": 3141,
      "ĠMc": 3142,
      "Ġapproach": 3143,
      "ĠSite": 3144,
      "ĠAny": 3145,
      "Ġprevious": 3146,
      "Ġentire": 3147,
      "CB": 3148,
      "gress": 3149,
      "Ġdriv": 3150,
      "Ġlonger": 3151,
      "amed": 3152,
      "ception": 3153,
      "Ġeveryone": 3154,
      "PR": 3155,
      "ĠCart": 3156,
      "ends": 3157,
      "Ġnote": 3158,
      "Ġrecogn": 3159,
      "ĠSH": 3160,
      "Ġdoesn": 3161,
      "Ġmot": 3162,
      "chan": 3163,
      "ĠWhe": 3164,
      "Ġbreak": 3165,
      "ĠBel": 3166,
      "istic": 3167,
      "Ġspe": 3168,
      "bit": 3169,
      "atur": 3170,
      "elcome": 3171,
      "ĠLife": 3172,
      "Ġselection": 3173,
      "Ġdisplay": 3174,
      "ribut": 3175,
      "Ġpo": 3176,
      "ĠSan": 3177,
      "Ġalmost": 3178,
      "ĠCre": 3179,
      "atal": 3180,
      "ĠFind": 3181,
      "Ġheart": 3182,
      "Ġproblems": 3183,
      "04": 3184,
      "ĠExp": 3185,
      "ĠÂ»": 3186,
      "unk": 3187,
      "Ġcolor": 3188,
      "Ġphone": 3189,
      "iable": 3190,
      "Ġbox": 3191,
      "aint": 3192,
      "reng": 3193,
      "Ġhom": 3194,
      "ĠLet": 3195,
      "ya": 3196,
      "ography": 3197,
      "Ġdeep": 3198,
      "Ġ2012": 3199,
      "Ġreceived": 3200,
      "Ġmax": 3201,
      "ĠGreen": 3202,
      "Ġmatch": 3203,
      "Ġcurrently": 3204,
      "Ġcamp": 3205,
      "ĠSing": 3206,
      "ĠName": 3207,
      "ĠUnder": 3208,
      "lor": 3209,
      "ĠBi": 3210,
      "Ġchoice": 3211,
      "Ġapplications": 3212,
      "ĠCanada": 3213,
      "Ġchalleng": 3214,
      "ĠPrivacy": 3215,
      "ĠEmail": 3216,
      "Ġpractice": 3217,
      "87": 3218,
      "dom": 3219,
      "Ġcause": 3220,
      "Ġpers": 3221,
      "ares": 3222,
      "Ġaccording": 3223,
      "Ġexpert": 3224,
      "ĠRuss": 3225,
      "ects": 3226,
      "ormal": 3227,
      "Ġprim": 3228,
      "ĠIndia": 3229,
      "64": 3230,
      "CT": 3231,
      "Ġforward": 3232,
      "ession": 3233,
      "Ġdifficult": 3234,
      ");": 3235,
      "Ġsyn": 3236,
      "ĠBox": 3237,
      "col": 3238,
      "Ġsays": 3239,
      "oups": 3240,
      "coming": 3241,
      "ĠWhy": 3242,
      "Ġlikely": 3243,
      "Ġinform": 3244,
      "Ġdescrib": 3245,
      "________": 3246,
      "uel": 3247,
      "ĠShipping": 3248,
      "Ġsolutions": 3249,
      "Ġouts": 3250,
      "etic": 3251,
      "Ġliving": 3252,
      "ellent": 3253,
      "gu": 3254,
      "57": 3255,
      "ĠChild": 3256,
      "Ġagree": 3257,
      "Ġissue": 3258,
      "Ġlay": 3259,
      "Ġbank": 3260,
      "wood": 3261,
      "Ġloss": 3262,
      "Ġusually": 3263,
      "Ġdecision": 3264,
      "Ġpict": 3265,
      "Ġver": 3266,
      "rees": 3267,
      "isions": 3268,
      "ĠExt": 3269,
      "Ġcomputer": 3270,
      "Ġfail": 3271,
      "Ġadminist": 3272,
      "Ġsomeone": 3273,
      "ĠID": 3274,
      "nd": 3275,
      "ini": 3276,
      "ington": 3277,
      "ĠGreat": 3278,
      "ĠAnn": 3279,
      "Ġlocation": 3280,
      "Ġpressure": 3281,
      "RI": 3282,
      "care": 3283,
      "Ġwatch": 3284,
      "ĠPet": 3285,
      "ĠMenu": 3286,
      "Ġhigher": 3287,
      "Ġfive": 3288,
      "ĠMich": 3289,
      "Ġthought": 3290,
      "Ġload": 3291,
      "ided": 3292,
      "Ġsuff": 3293,
      "enced": 3294,
      "ĠSuper": 3295,
      "ĠMag": 3296,
      "Ġsell": 3297,
      "ĠVol": 3298,
      "Ġthroughout": 3299,
      "isf": 3300,
      "ĠFil": 3301,
      "alls": 3302,
      "Ġaccur": 3303,
      "Ġrole": 3304,
      "Ġdetail": 3305,
      "Ġsimply": 3306,
      "umn": 3307,
      "Ġmedical": 3308,
      "ector": 3309,
      "ĠMedic": 3310,
      "hing": 3311,
      "str": 3312,
      "ĠProt": 3313,
      "ĠEducation": 3314,
      "pri": 3315,
      "though": 3316,
      "****": 3317,
      "acks": 3318,
      "ancing": 3319,
      "Ġcorrect": 3320,
      "{\"": 3321,
      "YY": 3322,
      "eria": 3323,
      "Ġsent": 3324,
      "ĠSet": 3325,
      "ĠVideos": 3326,
      "airs": 3327,
      "irth": 3328,
      "akers": 3329,
      "Ġtrust": 3330,
      "Ġneeded": 3331,
      "Ġskills": 3332,
      "ĠWed": 3333,
      "illing": 3334,
      "Ġcountries": 3335,
      "ĠTechnology": 3336,
      "sy": 3337,
      "Â®": 3338,
      "Ġlower": 3339,
      "istry": 3340,
      "ĠDevelopment": 3341,
      "Ġtaking": 3342,
      "Ġshows": 3343,
      "Ġmiss": 3344,
      "apter": 3345,
      "arrant": 3346,
      "fo": 3347,
      "ooth": 3348,
      "à¹": 3349,
      "Ġæ": 3350,
      "Ġinj": 3351,
      "Ġded": 3352,
      "Ġconcern": 3353,
      "Ġtable": 3354,
      "Ġwide": 3355,
      "ĠWash": 3356,
      "ores": 3357,
      "istor": 3358,
      "Ġeffective": 3359,
      "ĠMembers": 3360,
      "MS": 3361,
      "obs": 3362,
      "Ġtarget": 3363,
      "ĠBoard": 3364,
      "aming": 3365,
      "Ġcomplex": 3366,
      "Ġdise": 3367,
      "Ġdefin": 3368,
      "Ġactivity": 3369,
      "03": 3370,
      "ership": 3371,
      "'d": 3372,
      "Ġtaken": 3373,
      "ĠEar": 3374,
      "Ġstaff": 3375,
      "AY": 3376,
      "Ġter": 3377,
      "ĠRs": 3378,
      "ĠProject": 3379,
      "ĠMor": 3380,
      "Ġlanguage": 3381,
      "ples": 3382,
      "Ġimage": 3383,
      "itchen": 3384,
      "Ġtakes": 3385,
      "ĠCateg": 3386,
      "Ġdirectly": 3387,
      "EE": 3388,
      "Ġbed": 3389,
      "Ġincluded": 3390,
      "Ġpromot": 3391,
      "lation": 3392,
      "Ġprotection": 3393,
      "ĠAuthor": 3394,
      "bt": 3395,
      "Ġplant": 3396,
      "ĠClub": 3397,
      "AND": 3398,
      "Ġprivate": 3399,
      "ounter": 3400,
      "ĠJourn": 3401,
      "Ġenter": 3402,
      "Ġresponsible": 3403,
      "ĠâĤ¬": 3404,
      "itable": 3405,
      "aves": 3406,
      "ained": 3407,
      "91": 3408,
      "agram": 3409,
      "ĠAustral": 3410,
      "67": 3411,
      "Ġfinal": 3412,
      "ĠBuy": 3413,
      "Ġ2008": 3414,
      "ESS": 3415,
      "ĠFeature": 3416,
      "gn": 3417,
      "ĠBet": 3418,
      "Ġ2011": 3419,
      "Ġ2014": 3420,
      "Ġquickly": 3421,
      "olf": 3422,
      "adi": 3423,
      "ĠLive": 3424,
      "Ġeasily": 3425,
      "Ġopportunity": 3426,
      "itation": 3427,
      "Ġweight": 3428,
      "epend": 3429,
      "avy": 3430,
      "Ġexpect": 3431,
      "ext": 3432,
      "atives": 3433,
      "Ġsugg": 3434,
      "Ġinvestment": 3435,
      "Ġdocument": 3436,
      "Ġbit": 3437,
      "Ġintro": 3438,
      "Ġpartners": 3439,
      "attle": 3440,
      "ociety": 3441,
      "Ġsales": 3442,
      "Ġdat": 3443,
      "ashion": 3444,
      "Ġcreated": 3445,
      "pd": 3446,
      "Ġmor": 3447,
      "Ġequipment": 3448,
      "94": 3449,
      "ks": 3450,
      "adu": 3451,
      "ĠColor": 3452,
      "\\/": 3453,
      "ilk": 3454,
      "rack": 3455,
      "iff": 3456,
      "Ġcateg": 3457,
      "Ġrev": 3458,
      "ĠPRO": 3459,
      "Ġorders": 3460,
      "active": 3461,
      "Ġbusinesses": 3462,
      "Ġprojects": 3463,
      "Ġop": 3464,
      "pm": 3465,
      "ellow": 3466,
      "Ġscreen": 3467,
      "Ġhighly": 3468,
      "oul": 3469,
      "ĠSize": 3470,
      "ĠCON": 3471,
      "ocol": 3472,
      "Ġblock": 3473,
      "ĠSur": 3474,
      "ĠWell": 3475,
      "iforn": 3476,
      "ĠAP": 3477,
      "ĠPass": 3478,
      "ĠMicro": 3479,
      "ECT": 3480,
      "Ġneg": 3481,
      "ĠTeam": 3482,
      "bor": 3483,
      "Ġbal": 3484,
      "ida": 3485,
      "ĠOpt": 3486,
      "âĢ²": 3487,
      "Ġanything": 3488,
      "Ġarch": 3489,
      "Ġwriting": 3490,
      "ibrary": 3491,
      "Pro": 3492,
      "rite": 3493,
      "Ġinnov": 3494,
      "ĠCook": 3495,
      "Ġwor": 3496,
      "asy": 3497,
      "Ġquite": 3498,
      "TER": 3499,
      "ĠSS": 3500,
      "ĠIr": 3501,
      "Ġreading": 3502,
      "Ġprograms": 3503,
      "ĠDetails": 3504,
      "58": 3505,
      "Ġcame": 3506,
      "abel": 3507,
      "ĠVer": 3508,
      "ipe": 3509,
      "Ġprices": 3510,
      "Ġsource": 3511,
      "Ġcoup": 3512,
      "ico": 3513,
      "Ġofficial": 3514,
      "ĠCommunity": 3515,
      "ĠWomen": 3516,
      "ĠGood": 3517,
      "ĠDepartment": 3518,
      "Ġ60": 3519,
      "een": 3520,
      "Ġmatter": 3521,
      "ĠNetwork": 3522,
      "erved": 3523,
      "rel": 3524,
      "ĠWind": 3525,
      "ruit": 3526,
      "Ġidea": 3527,
      "ĠDE": 3528,
      "Ġweather": 3529,
      "iet": 3530,
      "list": 3531,
      "ĠRequ": 3532,
      "Ġinternational": 3533,
      "ĠDigital": 3534,
      "Ġstreng": 3535,
      "ĠAR": 3536,
      "Ġregul": 3537,
      "Ġsolution": 3538,
      "ii": 3539,
      "odes": 3540,
      "Ġsecure": 3541,
      "house": 3542,
      "Ġsale": 3543,
      "ĠPress": 3544,
      "Ġlevels": 3545,
      "Ġemployees": 3546,
      "500": 3547,
      "ĠBlog": 3548,
      "Ġleading": 3549,
      "ĠOffice": 3550,
      "Ġtru": 3551,
      "Ġbi": 3552,
      "Ġrefer": 3553,
      "amm": 3554,
      "rab": 3555,
      "Ġability": 3556,
      "ĠSupp": 3557,
      "Ġdry": 3558,
      "Ġstorage": 3559,
      "ached": 3560,
      "Ġstructure": 3561,
      "ifornia": 3562,
      "09": 3563,
      "68": 3564,
      "lies": 3565,
      "Ġlimited": 3566,
      "AQ": 3567,
      "ĠSum": 3568,
      "Ġimm": 3569,
      "Ġavoid": 3570,
      "iddle": 3571,
      "eal": 3572,
      "ges": 3573,
      "Ġdest": 3574,
      "Ġimmedi": 3575,
      "oys": 3576,
      "gar": 3577,
      "ĠCr": 3578,
      "ĠPal": 3579,
      "ĠStep": 3580,
      "aches": 3581,
      "Ġlif": 3582,
      "ĠWar": 3583,
      "ĠHis": 3584,
      "Ġrecent": 3585,
      "Ġguarant": 3586,
      "Ġpassword": 3587,
      "kn": 3588,
      "overy": 3589,
      "Ġfire": 3590,
      "ened": 3591,
      "Ġbc": 3592,
      "oms": 3593,
      "Ġnature": 3594,
      "Ġspeed": 3595,
      "erous": 3596,
      "ĠBo": 3597,
      "ĠSeries": 3598,
      "Ġpercent": 3599,
      "ologies": 3600,
      "OC": 3601,
      "mas": 3602,
      "wise": 3603,
      "Ġwish": 3604,
      "Ġpages": 3605,
      "Ġfix": 3606,
      "Ġ>>": 3607,
      "cont": 3608,
      "orge": 3609,
      "Ġtell": 3610,
      "ĠFull": 3611,
      "ĠFamily": 3612,
      "41": 3613,
      "hold": 3614,
      "asons": 3615,
      "ronic": 3616,
      ".)": 3617,
      "Ġcopy": 3618,
      "ĠItal": 3619,
      "Ġpm": 3620,
      "Ġdraw": 3621,
      "ĠWall": 3622,
      "ondon": 3623,
      "Ġindic": 3624,
      "Ġtook": 3625,
      "Ġlic": 3626,
      "Ġaccom": 3627,
      "overn": 3628,
      "Ġmodern": 3629,
      "08": 3630,
      "ties": 3631,
      "inary": 3632,
      "rep": 3633,
      "arks": 3634,
      "ĠFood": 3635,
      "ground": 3636,
      "ĠCollection": 3637,
      "Ġdidn": 3638,
      "AK": 3639,
      "Ġreach": 3640,
      "ĠMal": 3641,
      "Ġearn": 3642,
      "hens": 3643,
      "ancy": 3644,
      "Ġprint": 3645,
      "69": 3646,
      "----------------": 3647,
      "Ġannoun": 3648,
      "ĠTerms": 3649,
      "ĠAtt": 3650,
      "ĠMen": 3651,
      "vey": 3652,
      "ycl": 3653,
      "Ġwent": 3654,
      "Ġmass": 3655,
      "ĠIndust": 3656,
      "ĠReturn": 3657,
      "nes": 3658,
      "ero": 3659,
      "Ġpan": 3660,
      "Ġple": 3661,
      "emb": 3662,
      "ĠEvents": 3663,
      "ka": 3664,
      "tr": 3665,
      "Ġupon": 3666,
      "Ġqual": 3667,
      "ĠHead": 3668,
      "Ġinsurance": 3669,
      "ipped": 3670,
      "ĠDavid": 3671,
      "53": 3672,
      "asts": 3673,
      "ĠBrit": 3674,
      "ĠOR": 3675,
      "comes": 3676,
      "ters": 3677,
      "Ġhelps": 3678,
      "Ġmethods": 3679,
      "Ġoutside": 3680,
      "onse": 3681,
      "oke": 3682,
      "ĠExper": 3683,
      "ĠCalifornia": 3684,
      "Ġwonder": 3685,
      "Ġstar": 3686,
      "ĠGirl": 3687,
      "âĢĶâĢĶâĢĶâĢĶ": 3688,
      "Ġclos": 3689,
      "ĠBank": 3690,
      "ĠOS": 3691,
      "ĠZM": 3692,
      "irtual": 3693,
      "59": 3694,
      "Cl": 3695,
      "ĠSocial": 3696,
      "Ġjourney": 3697,
      "Ġtransfer": 3698,
      "Ġguide": 3699,
      "Ġpurpose": 3700,
      "arden": 3701,
      "Ġadvert": 3702,
      "ĠZMYY": 3703,
      "ceed": 3704,
      "ĠHistory": 3705,
      "ĠON": 3706,
      "Ġfeed": 3707,
      "burg": 3708,
      "mon": 3709,
      "Ġaverage": 3710,
      "erve": 3711,
      "ĠAB": 3712,
      "Ġinside": 3713,
      "Ġbuilt": 3714,
      "Ġphysical": 3715,
      "42": 3716,
      "ĠPack": 3717,
      "Ġep": 3718,
      "ĠDef": 3719,
      "Ġinflu": 3720,
      "Ġcreating": 3721,
      "Ex": 3722,
      "ĠTor": 3723,
      "Ġhalf": 3724,
      "ĠBre": 3725,
      "Ġsepar": 3726,
      "ribution": 3727,
      "ĠWilliam": 3728,
      "63": 3729,
      "cel": 3730,
      "kt": 3731,
      "Ġbud": 3732,
      "ĠDar": 3733,
      "ady": 3734,
      "Ġleave": 3735,
      "43": 3736,
      "CA": 3737,
      "ĠPersonal": 3738,
      "ians": 3739,
      "ĠSam": 3740,
      "ctions": 3741,
      "ĠGerm": 3742,
      "perature": 3743,
      "ĠPR": 3744,
      "ĠPaul": 3745,
      "ĠStar": 3746,
      "Ġsave": 3747,
      "issions": 3748,
      "Ġachieve": 3749,
      "Ġill": 3750,
      "ĠDrive": 3751,
      "ĠTex": 3752,
      "Ġblood": 3753,
      "ĠClean": 3754,
      "set": 3755,
      "itute": 3756,
      "Ġlin": 3757,
      "Ġsatisf": 3758,
      "lier": 3759,
      "Ġsix": 3760,
      "ĠCard": 3761,
      "ĠMult": 3762,
      "izations": 3763,
      "Ġhappy": 3764,
      "Ġexcellent": 3765,
      "Ġrout": 3766,
      "ĠWebs": 3767,
      "door": 3768,
      "ĠFore": 3769,
      "ĠNon": 3770,
      "Ġseek": 3771,
      "Ġprec": 3772,
      "ĠUSA": 3773,
      "Ġpublished": 3774,
      "TI": 3775,
      "Ġisn": 3776,
      "Ġcommercial": 3777,
      "ĠSal": 3778,
      "iding": 3779,
      "irit": 3780,
      "ups": 3781,
      "ĠApplic": 3782,
      "ittee": 3783,
      "field": 3784,
      "ctor": 3785,
      "ĠSports": 3786,
      "Ġopportunities": 3787,
      "Ġsong": 3788,
      "ĠLight": 3789,
      "Ġplayers": 3790,
      "Ġhope": 3791,
      "ĠEconom": 3792,
      "ague": 3793,
      "abric": 3794,
      "Ġsche": 3795,
      "ĠAlso": 3796,
      "tenance": 3797,
      "mod": 3798,
      "ools": 3799,
      "Ġmeasure": 3800,
      "PE": 3801,
      "gs": 3802,
      "Ġtren": 3803,
      "Ġmix": 3804,
      "Ġimages": 3805,
      "Ġlocated": 3806,
      "porate": 3807,
      "ĠSecurity": 3808,
      "asc": 3809,
      "ĠCap": 3810,
      "78": 3811,
      "Wh": 3812,
      "friend": 3813,
      "ĠOnce": 3814,
      "Ġconsult": 3815,
      "Ġweeks": 3816,
      "Ġpoll": 3817,
      "ĠFre": 3818,
      "Ġexact": 3819,
      "Ð»": 3820,
      "ĠMaster": 3821,
      "Ġeval": 3822,
      "Ġpatients": 3823,
      "ĠMake": 3824,
      "ĠHy": 3825,
      "0022": 3826,
      "ĠJava": 3827,
      "ribute": 3828,
      "ĠRegister": 3829,
      "Ġrunning": 3830,
      "ĠMaterial": 3831,
      "ĠThanks": 3832,
      "Ġconsidered": 3833,
      "clusive": 3834,
      "gen": 3835,
      "ĠTV": 3836,
      "Ġtherap": 3837,
      "ĠDem": 3838,
      "endar": 3839,
      "ĠContent": 3840,
      "Ġadvant": 3841,
      "Ã¥": 3842,
      "ĠMac": 3843,
      "Ġvs": 3844,
      "sych": 3845,
      "Ġcelebr": 3846,
      "ado": 3847,
      "Ġbad": 3848,
      "opt": 3849,
      "ertain": 3850,
      "ĠBuild": 3851,
      "ĠAccount": 3852,
      "ĠEngineering": 3853,
      "Ġtask": 3854,
      "Ġdiscover": 3855,
      "LC": 3856,
      "Re": 3857,
      "itution": 3858,
      "ĠIS": 3859,
      "Ġvisitors": 3860,
      "Ġsense": 3861,
      "Ġworth": 3862,
      "cks": 3863,
      "othing": 3864,
      "Ġwebsites": 3865,
      "Ġdamage": 3866,
      "ĠAssociation": 3867,
      "Ġcrypt": 3868,
      "ĠWood": 3869,
      "Ġcoming": 3870,
      "overs": 3871,
      "Ġpred": 3872,
      "iciency": 3873,
      "Ġassociated": 3874,
      "Äģ": 3875,
      "Ġfiles": 3876,
      "itical": 3877,
      "Ġmenu": 3878,
      "bu": 3879,
      "Ġwww": 3880,
      "ĠLondon": 3881,
      "ĠMedical": 3882,
      "Ġmoment": 3883,
      "quiry": 3884,
      "box": 3885,
      "gle": 3886,
      "year": 3887,
      "Ġsun": 3888,
      "Ġgift": 3889,
      "Ġvac": 3890,
      "Ġrather": 3891,
      "ĠIT": 3892,
      "à¤¾": 3893,
      "Ġdeveloped": 3894,
      "Ġorganization": 3895,
      "gy": 3896,
      "sk": 3897,
      "Ġsound": 3898,
      "ilies": 3899,
      "quently": 3900,
      "ĠJoin": 3901,
      "ĠPosts": 3902,
      "ĠKn": 3903,
      "Ġunderstanding": 3904,
      "Ġesc": 3905,
      "ĠLogin": 3906,
      "power": 3907,
      "ester": 3908,
      "ĠFound": 3909,
      "unt": 3910,
      "ĠPosted": 3911,
      "ĠInternet": 3912,
      "Ġsleep": 3913,
      "lied": 3914,
      "ĠCho": 3915,
      "ĠIndian": 3916,
      "==": 3917,
      "river": 3918,
      "ishing": 3919,
      "ĠConn": 3920,
      "ĠUSD": 3921,
      "dule": 3922,
      "ĠCollege": 3923,
      "Ġappropri": 3924,
      "Ġestate": 3925,
      "hood": 3926,
      "Ġsometimes": 3927,
      "wide": 3928,
      "ĠØ": 3929,
      "ĠCode": 3930,
      "poses": 3931,
      "Ġtrying": 3932,
      "Ġcru": 3933,
      "ĠIP": 3934,
      "Ġcollabor": 3935,
      "Ġenhance": 3936,
      "erry": 3937,
      "ĠOrder": 3938,
      "ĠMusic": 3939,
      "Ġhair": 3940,
      "Ġexpress": 3941,
      "ĠPhil": 3942,
      "Ã¼": 3943,
      "Ġtouch": 3944,
      "Ġdevices": 3945,
      "Un": 3946,
      "ĠCD": 3947,
      "Ġaltern": 3948,
      "clusion": 3949,
      "Ġcasino": 3950,
      "icken": 3951,
      "Ġrefund": 3952,
      "Ġideas": 3953,
      "ĠStock": 3954,
      "ĠChina": 3955,
      "ĠII": 3956,
      "Ġrele": 3957,
      "ĠGen": 3958,
      "ĠAngel": 3959,
      "ĠMedia": 3960,
      "Ġwritten": 3961,
      "ota": 3962,
      "ĠDan": 3963,
      "ĠFire": 3964,
      "ĠFollow": 3965,
      "ĠEnter": 3966,
      "mical": 3967,
      "ĠUN": 3968,
      "allery": 3969,
      "Ġfully": 3970,
      "Ġdegree": 3971,
      "mitted": 3972,
      "inct": 3973,
      "atically": 3974,
      "Ġvideos": 3975,
      "Ġheld": 3976,
      "Ġamazing": 3977,
      "hest": 3978,
      "Ġcool": 3979,
      "ducing": 3980,
      "Ġprobably": 3981,
      "lim": 3982,
      "roid": 3983,
      "ĠFund": 3984,
      "Ġones": 3985,
      "ĠLo": 3986,
      "ĠGovern": 3987,
      "ĠSoft": 3988,
      "ederal": 3989,
      "Ġlives": 3990,
      "thern": 3991,
      "Ġmonitor": 3992,
      "IK": 3993,
      "ette": 3994,
      "Ġnut": 3995,
      "Ġgives": 3996,
      "abled": 3997,
      "Ġconduct": 3998,
      "Ġconven": 3999,
      "ĠMany": 4000,
      "Ġexerc": 4001,
      "Ġactive": 4002,
      "onus": 4003,
      "ĠTim": 4004,
      "ĠCond": 4005,
      "ĠPan": 4006,
      "istration": 4007,
      "iamond": 4008,
      "ĠTexas": 4009,
      "idents": 4010,
      "Ġremain": 4011,
      "ga": 4012,
      "ĠCamp": 4013,
      "pped": 4014,
      "Ġfem": 4015,
      "Ġpurposes": 4016,
      "Ġprocessing": 4017,
      "ĠBrand": 4018,
      "icon": 4019,
      "ĠAud": 4020,
      "ĠThank": 4021,
      "Ġseem": 4022,
      "Ġconnection": 4023,
      "ĠProfess": 4024,
      "UB": 4025,
      "bol": 4026,
      "Ġcharge": 4027,
      "Ġinternet": 4028,
      "bian": 4029,
      "Ġpath": 4030,
      "ĠPage": 4031,
      "iment": 4032,
      "Ġ32": 4033,
      "Ġattention": 4034,
      "levant": 4035,
      "ĠLook": 4036,
      "Ġfilm": 4037,
      "ĠLearn": 4038,
      "uge": 4039,
      "ĠTog": 4040,
      "ĠHD": 4041,
      "ĠStore": 4042,
      "Ġwords": 4043,
      "otal": 4044,
      "urt": 4045,
      "Ġhear": 4046,
      "Ġthemselves": 4047,
      "Ġstrategy": 4048,
      "bo": 4049,
      "Ġsn": 4050,
      "ĠFOR": 4051,
      "Ġgoal": 4052,
      "Ġefficient": 4053,
      "Ġinvolved": 4054,
      "89": 4055,
      "dG": 4056,
      "Ġreduce": 4057,
      "race": 4058,
      "Ġexisting": 4059,
      "actions": 4060,
      "Ġobtain": 4061,
      "SP": 4062,
      "aign": 4063,
      "Ġflex": 4064,
      "Ġdaily": 4065,
      "Ġcomments": 4066,
      "ĠStr": 4067,
      "rench": 4068,
      "Ġbasic": 4069,
      "inn": 4070,
      "Ġsus": 4071,
      "Ġanyone": 4072,
      "ĠProv": 4073,
      "Ġemerg": 4074,
      "Ġfavorite": 4075,
      "ĠCas": 4076,
      "iring": 4077,
      "Ġbutton": 4078,
      "IST": 4079,
      "uration": 4080,
      "Ġbehav": 4081,
      "Ġsteps": 4082,
      "Ġanimals": 4083,
      "bm": 4084,
      "itect": 4085,
      "ĠEach": 4086,
      "ĠNet": 4087,
      "ework": 4088,
      "ĠYes": 4089,
      "Ñĥ": 4090,
      "osh": 4091,
      "ounc": 4092,
      "Ðº": 4093,
      "Ġevidence": 4094,
      "ĠPresident": 4095,
      "ĠWebsite": 4096,
      "Ġhor": 4097,
      "Ġdeath": 4098,
      "Ġdepos": 4099,
      "annel": 4100,
      "iques": 4101,
      "ĠTitle": 4102,
      "ifts": 4103,
      "ĠJournal": 4104,
      "free": 4105,
      "abilities": 4106,
      "Ġadjust": 4107,
      "Ġprem": 4108,
      "otton": 4109,
      "ĠGame": 4110,
      "ĠJames": 4111,
      "Ã¶": 4112,
      "ĠLim": 4113,
      "ĠLove": 4114,
      "Ġ90": 4115,
      "Ġadministr": 4116,
      "iec": 4117,
      "pond": 4118,
      "ĠAvenue": 4119,
      "Ġgas": 4120,
      "tty": 4121,
      "Ġprofession": 4122,
      "Ġvehicle": 4123,
      "76": 4124,
      "ĠLatest": 4125,
      "ĠGlobal": 4126,
      "Ġclient": 4127,
      "Ġidentify": 4128,
      "ja": 4129,
      "mart": 4130,
      "Ġcapt": 4131,
      "asket": 4132,
      "itness": 4133,
      "ĠNEW": 4134,
      "acity": 4135,
      "attery": 4136,
      "Ġtraditional": 4137,
      "UD": 4138,
      "Ġelements": 4139,
      "ĠLead": 4140,
      "band": 4141,
      "more": 4142,
      "rey": 4143,
      "ĠMat": 4144,
      "bi": 4145,
      "ĠAI": 4146,
      "Ġchance": 4147,
      "ĠExpl": 4148,
      "olicies": 4149,
      "Ġreviews": 4150,
      "Ġsuggest": 4151,
      "RIP": 4152,
      "down": 4153,
      "alle": 4154,
      "otes": 4155,
      "ĠRock": 4156,
      "ĠNote": 4157,
      "hips": 4158,
      "Ġutil": 4159,
      "Ġbase": 4160,
      "ston": 4161,
      "ĠMo": 4162,
      "ĠMount": 4163,
      "Ġconvers": 4164,
      "force": 4165,
      "ev": 4166,
      "Ġaim": 4167,
      "Ġcash": 4168,
      "Ġprivacy": 4169,
      "Ġdig": 4170,
      "ĠBL": 4171,
      "Ġoverall": 4172,
      "arent": 4173,
      "key": 4174,
      "aling": 4175,
      "Ġmer": 4176,
      "Ġbey": 4177,
      "Ġitself": 4178,
      "Ġassess": 4179,
      "Ġwanted": 4180,
      "no": 4181,
      "xy": 4182,
      "Ġcand": 4183,
      "Ġant": 4184,
      "eties": 4185,
      "ĠMichael": 4186,
      "Ġfresh": 4187,
      "ĠSen": 4188,
      "illa": 4189,
      "Ġrequires": 4190,
      "Ġviol": 4191,
      "Ġparents": 4192,
      "ros": 4193,
      "ĠHall": 4194,
      "Ġpartner": 4195,
      "Ġcareer": 4196,
      "ÑĮ": 4197,
      "atin": 4198,
      "ifications": 4199,
      "ĠSand": 4200,
      "Ġproced": 4201,
      "ĠJe": 4202,
      "Ġmodels": 4203,
      "Ġhealthy": 4204,
      "Ġaware": 4205,
      "Ġpiece": 4206,
      "icks": 4207,
      "Ġindustrial": 4208,
      "NA": 4209,
      "æľ": 4210,
      "Ġç": 4211,
      "Ġtim": 4212,
      "ĠIss": 4213,
      "Ġ35": 4214,
      "Ġfees": 4215,
      "ĠHelp": 4216,
      "Ġsustain": 4217,
      "amin": 4218,
      "utter": 4219,
      "umin": 4220,
      "ĠPhys": 4221,
      "Ġoccur": 4222,
      "women": 4223,
      "Ġproduce": 4224,
      "Ġproduced": 4225,
      "Ġnotice": 4226,
      "Ġplaying": 4227,
      "Ġeffects": 4228,
      "ĠReport": 4229,
      "Ġcenter": 4230,
      "http": 4231,
      "Ġbeyond": 4232,
      "Ġtowards": 4233,
      "Ġstream": 4234,
      "Ġground": 4235,
      "Ġconstruction": 4236,
      "ĠEuropean": 4237,
      "rehens": 4238,
      "Ġextrem": 4239,
      "Ġviews": 4240,
      "Ġpattern": 4241,
      "Ġbottom": 4242,
      "imately": 4243,
      "Ġbillion": 4244,
      "Ġconsent": 4245,
      "This": 4246,
      "aters": 4247,
      "Ġemot": 4248,
      "Ġgroups": 4249,
      "Ġacqu": 4250,
      "Ġsmart": 4251,
      "ĠPeople": 4252,
      "pts": 4253,
      "ĠDi": 4254,
      "Ġexhib": 4255,
      "Ġanaly": 4256,
      "Ġbehind": 4257,
      "93": 4258,
      "BA": 4259,
      "It": 4260,
      "izza": 4261,
      "Ġelse": 4262,
      "ĠTem": 4263,
      "ĠAG": 4264,
      "ĠConf": 4265,
      "Ġregarding": 4266,
      "DF": 4267,
      "Ġbath": 4268,
      "ĠLong": 4269,
      "ĠNumber": 4270,
      "Ġrecently": 4271,
      "idential": 4272,
      "Ġtemperature": 4273,
      "Ġwarrant": 4274,
      "Ġdrive": 4275,
      "ĠInstagram": 4276,
      "Ġmessage": 4277,
      "ios": 4278,
      "reement": 4279,
      "Ġword": 4280,
      "Ġmatt": 4281,
      "Ġmention": 4282,
      "Ġnational": 4283,
      "ersey": 4284,
      "Ġlimit": 4285,
      "ĠDelivery": 4286,
      "ded": 4287,
      "date": 4288,
      "Ġdream": 4289,
      "ĠMer": 4290,
      "Ġsupply": 4291,
      "hel": 4292,
      "enge": 4293,
      "Ġfirm": 4294,
      "Ġmag": 4295,
      "ĠCost": 4296,
      "Ġformer": 4297,
      "ĠLand": 4298,
      "Ġstop": 4299,
      "ika": 4300,
      "Ġplanning": 4301,
      "Ġproposed": 4302,
      "known": 4303,
      "äº": 4304,
      "ĠFac": 4305,
      "Ġprogress": 4306,
      "Ġplaced": 4307,
      "Ġregion": 4308,
      "ĠInvest": 4309,
      "gest": 4310,
      "ht": 4311,
      "lig": 4312,
      "vis": 4313,
      "arily": 4314,
      "igure": 4315,
      "oper": 4316,
      "ĠItem": 4317,
      "Ġposts": 4318,
      "Ġdifference": 4319,
      "zy": 4320,
      "ļĦ": 4321,
      "ĠSort": 4322,
      "ĠBec": 4323,
      "ĠJun": 4324,
      "Ġseed": 4325,
      "Ġremove": 4326,
      "92": 4327,
      "EO": 4328,
      "estern": 4329,
      "Ġhon": 4330,
      "ĠBur": 4331,
      "ĠKe": 4332,
      "Ġfeet": 4333,
      "ĠAcadem": 4334,
      "Ġencour": 4335,
      "ĠMess": 4336,
      "ĠMond": 4337,
      "ighest": 4338,
      "Ġsharing": 4339,
      "Ġtesting": 4340,
      "Ġlinks": 4341,
      "round": 4342,
      "Ġinstruct": 4343,
      "ĠUser": 4344,
      "Ġestim": 4345,
      "Ġborn": 4346,
      "ĠTR": 4347,
      "iling": 4348,
      "ĠMart": 4349,
      "Ġlength": 4350,
      "ĠRest": 4351,
      "ĠNor": 4352,
      "ĠTwitter": 4353,
      "Ġtitle": 4354,
      "itors": 4355,
      "Ġnothing": 4356,
      "Ġteach": 4357,
      "encies": 4358,
      "ĠResources": 4359,
      "ĠDescription": 4360,
      "ĠFinancial": 4361,
      "Ġmus": 4362,
      "uality": 4363,
      "ĠPrint": 4364,
      "Ġsurface": 4365,
      "Ġrelease": 4366,
      "urer": 4367,
      "Ġloan": 4368,
      "incip": 4369,
      "erator": 4370,
      "asure": 4371,
      "ĠFAQ": 4372,
      "inese": 4373,
      "uke": 4374,
      "Ġcapital": 4375,
      "anch": 4376,
      "ĠSn": 4377,
      "used": 4378,
      "ĠNJ": 4379,
      "empt": 4380,
      "ĠKeep": 4381,
      "plate": 4382,
      "Ġclub": 4383,
      "ensions": 4384,
      "Ġtechnical": 4385,
      "Ġdemand": 4386,
      "Ġappropriate": 4387,
      "RIPT": 4388,
      "MA": 4389,
      "Ġtour": 4390,
      "Ġseems": 4391,
      "apers": 4392,
      "ought": 4393,
      "Ġhyd": 4394,
      "pet": 4395,
      "ĠAS": 4396,
      "ading": 4397,
      "ĠEff": 4398,
      "Ġrates": 4399,
      "Fi": 4400,
      "Ġfarm": 4401,
      "Ġreplace": 4402,
      "Ġnormal": 4403,
      "imal": 4404,
      "Ġstress": 4405,
      "ĠRef": 4406,
      "Ġotherwise": 4407,
      "Ġgoals": 4408,
      "ĠWashington": 4409,
      "Ġaw": 4410,
      "ita": 4411,
      "oma": 4412,
      "ĠCA": 4413,
      "ĠHill": 4414,
      "ĠOh": 4415,
      "Ġappoint": 4416,
      "Ġinfo": 4417,
      "Ġserious": 4418,
      "Ġanswer": 4419,
      "ĠTer": 4420,
      "ĠHard": 4421,
      "Ġaspect": 4422,
      "Ġ02": 4423,
      "itcoin": 4424,
      "pat": 4425,
      "ĠCreat": 4426,
      "ste": 4427,
      "uth": 4428,
      "ĠForum": 4429,
      "ĠApple": 4430,
      "Ġhands": 4431,
      "Ġbreed": 4432,
      "ieces": 4433,
      "zer": 4434,
      "reci": 4435,
      "Ġsil": 4436,
      "Ġpet": 4437,
      "Ġstudent": 4438,
      "Ġoffering": 4439,
      "standing": 4440,
      "ourses": 4441,
      "Ġincreasing": 4442,
      "ĠSafety": 4443,
      "ĠWhether": 4444,
      "like": 4445,
      "çļĦ": 4446,
      "Ġsqu": 4447,
      "ĠPub": 4448,
      "Ġlost": 4449,
      "ĠBas": 4450,
      "ĠWi": 4451,
      "Ġresponse": 4452,
      "ĠQuest": 4453,
      "Ġreturns": 4454,
      "ĠTraining": 4455,
      "wear": 4456,
      "Ġsal": 4457,
      "Ġwall": 4458,
      "ĠWatch": 4459,
      "ĠRob": 4460,
      "ĠEN": 4461,
      "PA": 4462,
      "bre": 4463,
      "ament": 4464,
      "adio": 4465,
      "Ġattract": 4466,
      "Ġexplore": 4467,
      "ĠChristmas": 4468,
      "Ġeye": 4469,
      "OUR": 4470,
      "Ph": 4471,
      "va": 4472,
      "inder": 4473,
      "ĠBen": 4474,
      "Ġremember": 4475,
      "ĠFriday": 4476,
      "side": 4477,
      "Ġult": 4478,
      "Ġharm": 4479,
      "ĠMatt": 4480,
      "ĠRober": 4481,
      "ĠGift": 4482,
      "Ġshown": 4483,
      "ĠSEO": 4484,
      "54": 4485,
      "fol": 4486,
      "la": 4487,
      "Ġ%": 4488,
      "usion": 4489,
      "Ġsubst": 4490,
      "ĠNext": 4491,
      "Ġensuring": 4492,
      "ye": 4493,
      "ĠHair": 4494,
      "ĠThom": 4495,
      "Ġeconomic": 4496,
      "cing": 4497,
      "Ã¡": 4498,
      "Ġmount": 4499,
      "que": 4500,
      "oyal": 4501,
      "Ġroad": 4502,
      "Ġexperiences": 4503,
      "Ġ500": 4504,
      "Ġconsist": 4505,
      "Ġcompletely": 4506,
      "LS": 4507,
      "Ġwrite": 4508,
      "Ġpen": 4509,
      "ĠProcess": 4510,
      "Ġerection": 4511,
      "link": 4512,
      "eries": 4513,
      "Ġgraph": 4514,
      "Ġgiving": 4515,
      "Ġship": 4516,
      "Ġmanage": 4517,
      "Ġmedic": 4518,
      "Ġcharacters": 4519,
      "Ġtips": 4520,
      "Ġwoman": 4521,
      "ĠColl": 4522,
      "ĠMach": 4523,
      "abase": 4524,
      "ĠConst": 4525,
      "ĠFlor": 4526,
      "Ġinvestig": 4527,
      "Ġincreased": 4528,
      "72": 4529,
      "ĠThen": 4530,
      "ACK": 4531,
      "Ġaffect": 4532,
      "Ġfactors": 4533,
      "86": 4534,
      "Ġwood": 4535,
      "Ġrelevant": 4536,
      "imin": 4537,
      "Ġkids": 4538,
      "ecutive": 4539,
      "Ġstrength": 4540,
      "oist": 4541,
      "},\"": 4542,
      "arter": 4543,
      "Ġopp": 4544,
      "Ġmeeting": 4545,
      "Ġchallenges": 4546,
      "ependent": 4547,
      "BB": 4548,
      "Ġder": 4549,
      "iler": 4550,
      "ĠEven": 4551,
      "Ġsettings": 4552,
      ")(": 4553,
      "iant": 4554,
      "uji": 4555,
      "Ġsav": 4556,
      "Ġwarm": 4557,
      "Ġpark": 4558,
      "irts": 4559,
      "Ġscience": 4560,
      "ls": 4561,
      "Ġbus": 4562,
      "icing": 4563,
      "Ġhk": 4564,
      "Ġparties": 4565,
      "Ġ80": 4566,
      "Ġadvanced": 4567,
      "Ġrestaur": 4568,
      "ĠModel": 4569,
      "51": 4570,
      "mat": 4571,
      "Ġcards": 4572,
      "ĠCOV": 4573,
      "Ġgreen": 4574,
      "ĠFoot": 4575,
      "Ġinstead": 4576,
      "Ġbooks": 4577,
      "PC": 4578,
      "agraph": 4579,
      "Ġdisease": 4580,
      "ta": 4581,
      "Ġgrowing": 4582,
      "Ġsituation": 4583,
      "Ġsummer": 4584,
      "ĠAustralia": 4585,
      "Ġ?": 4586,
      "Ġwrong": 4587,
      "Ġjud": 4588,
      "Ġ2009": 4589,
      "ĠÂ©": 4590,
      "Ġinterested": 4591,
      "Ġinitial": 4592,
      "ĠChildren": 4593,
      "Com": 4594,
      "ua": 4595,
      "itude": 4596,
      "Ġmechan": 4597,
      "à¤°": 4598,
      "Ġpowerful": 4599,
      "Ġphotos": 4600,
      "ĠOverview": 4601,
      "Ġcommunication": 4602,
      "Ġmid": 4603,
      "ĠWeek": 4604,
      "rast": 4605,
      "Ġled": 4606,
      "ript": 4607,
      "ĠJul": 4608,
      "Ġcouple": 4609,
      "QU": 4610,
      "name": 4611,
      "ĠNov": 4612,
      "Ġsports": 4613,
      "anges": 4614,
      "Ġ70": 4615,
      "ANG": 4616,
      "urrency": 4617,
      "........": 4618,
      "ZX": 4619,
      "ca": 4620,
      "ola": 4621,
      "ĠOb": 4622,
      "plic": 4623,
      "ĠCourse": 4624,
      "ĠALL": 4625,
      "rehensive": 4626,
      "rical": 4627,
      "Ġwild": 4628,
      "inger": 4629,
      "Ġdetermine": 4630,
      "Ġing": 4631,
      "ĠId": 4632,
      "ĠDI": 4633,
      "ĠLike": 4634,
      "Ġstra": 4635,
      "Ġvary": 4636,
      "Ġincome": 4637,
      "ĠToday": 4638,
      "Ġimmediately": 4639,
      "74": 4640,
      "TA": 4641,
      "ald": 4642,
      "ĠCert": 4643,
      "Ġreasons": 4644,
      "Ġcarry": 4645,
      "Ġcalcul": 4646,
      "ĠâĨĴ": 4647,
      "ĠAfrica": 4648,
      "Ġextremely": 4649,
      "62": 4650,
      "YW": 4651,
      "Ġcorn": 4652,
      "term": 4653,
      "Ġplans": 4654,
      "2018": 4655,
      "à¤¿": 4656,
      "Ġreflect": 4657,
      "ospital": 4658,
      "Ġprimary": 4659,
      "Ġshop": 4660,
      "ellig": 4661,
      "Ġbright": 4662,
      "Ġasked": 4663,
      "rd": 4664,
      "ĠMot": 4665,
      "Ġ45": 4666,
      "Ġarr": 4667,
      "Ġbroad": 4668,
      "An": 4669,
      "TE": 4670,
      "Ġbur": 4671,
      "Ġgold": 4672,
      "quality": 4673,
      "Ġexchange": 4674,
      "antly": 4675,
      "REE": 4676,
      "illy": 4677,
      "Ġge": 4678,
      "ĠHuman": 4679,
      "ĠVir": 4680,
      "ously": 4681,
      "ĠOrig": 4682,
      "Ġeasier": 4683,
      "Sk": 4684,
      "ĠPop": 4685,
      "estic": 4686,
      "ibly": 4687,
      "Ġmorning": 4688,
      "79": 4689,
      "GB": 4690,
      "OG": 4691,
      "ĠWH": 4692,
      "Ġworked": 4693,
      "ĠControl": 4694,
      "\":{\"": 4695,
      "prise": 4696,
      "ĠImp": 4697,
      "Ġupdate": 4698,
      "isation": 4699,
      "Ġbul": 4700,
      "ĠAlex": 4701,
      "ĠMonth": 4702,
      "Ġparticularly": 4703,
      "ycle": 4704,
      "ÃŃ": 4705,
      "Ġ00": 4706,
      "ona": 4707,
      "ĠMobile": 4708,
      "ĠEp": 4709,
      "Ġunit": 4710,
      "ĠDev": 4711,
      "ribe": 4712,
      "Ġbasis": 4713,
      "Ġ{{": 4714,
      "ĠMonday": 4715,
      "ĠHam": 4716,
      "Ġpatient": 4717,
      "rooms": 4718,
      "ĠLocal": 4719,
      "Ġhous": 4720,
      "anging": 4721,
      "Ġinterview": 4722,
      "Ġengineering": 4723,
      "uing": 4724,
      "onents": 4725,
      "Ġbra": 4726,
      "osure": 4727,
      "ALL": 4728,
      "Ġfat": 4729,
      "Ġthanks": 4730,
      "ĠHave": 4731,
      "ective": 4732,
      "ĠGuide": 4733,
      "Ġpositive": 4734,
      "On": 4735,
      "gp": 4736,
      "Ġpow": 4737,
      "ĠMax": 4738,
      "ĠRiver": 4739,
      "Ġstored": 4740,
      "Ġpaid": 4741,
      "Ġdyn": 4742,
      "amework": 4743,
      "Ġclimate": 4744,
      "Ġtrade": 4745,
      "Ġcommit": 4746,
      "Ġrepair": 4747,
      "ORE": 4748,
      "Ġexpected": 4749,
      "Ġvalues": 4750,
      "Ġstarting": 4751,
      "Ġgenerally": 4752,
      "Ġpaint": 4753,
      "ĠDirector": 4754,
      "ZW": 4755,
      "met": 4756,
      "Ġbonus": 4757,
      "ĠTur": 4758,
      "ula": 4759,
      "ĠProper": 4760,
      "ĠSpec": 4761,
      "ĠOnly": 4762,
      "Ġupdated": 4763,
      "where": 4764,
      "ãĢĤ": 4765,
      "here": 4766,
      "alse": 4767,
      "Ġrules": 4768,
      "hentic": 4769,
      "Ġideal": 4770,
      "Ġoccas": 4771,
      "Ġglass": 4772,
      "idden": 4773,
      "åħ": 4774,
      "ĠDen": 4775,
      "uts": 4776,
      "Ġ48": 4777,
      "ario": 4778,
      "Ġlooks": 4779,
      "Ġvalid": 4780,
      "Ġpassion": 4781,
      "ĠOrganization": 4782,
      "xx": 4783,
      "Ã³": 4784,
      "Ġwar": 4785,
      "ala": 4786,
      "ĠTom": 4787,
      "ĠGames": 4788,
      "acing": 4789,
      "Ġincor": 4790,
      "Ġtransport": 4791,
      "iverse": 4792,
      "lt": 4793,
      "Ġwid": 4794,
      "enture": 4795,
      "ĠMont": 4796,
      "uty": 4797,
      "ĠJew": 4798,
      "soft": 4799,
      "rene": 4800,
      "Ġnumbers": 4801,
      "Ġphoto": 4802,
      "Ġautomatically": 4803,
      "Ġcomfortable": 4804,
      "SC": 4805,
      "VER": 4806,
      "Ġmicro": 4807,
      "Ġlate": 4808,
      "ĠHE": 4809,
      "ago": 4810,
      "Ġappreci": 4811,
      "Ġadvice": 4812,
      "Ġsuccessful": 4813,
      "Ġdedicated": 4814,
      "ref": 4815,
      "Ġalone": 4816,
      "ĠAnt": 4817,
      "Ġcolour": 4818,
      "shop": 4819,
      "Ġexperienced": 4820,
      "asm": 4821,
      "ĠEX": 4822,
      "Ġapps": 4823,
      "Ġassets": 4824,
      "Ġexpand": 4825,
      "ĠCreate": 4826,
      "ken": 4827,
      "Ġdress": 4828,
      "ĠAD": 4829,
      "ffic": 4830,
      "ĠCommittee": 4831,
      "ĠTwo": 4832,
      "amera": 4833,
      "SA": 4834,
      "oration": 4835,
      "Ġson": 4836,
      "ĠSince": 4837,
      "ĠMa": 4838,
      "idel": 4839,
      "Ġstates": 4840,
      "Ġpretty": 4841,
      "Ġproperties": 4842,
      "Ġabsol": 4843,
      "FF": 4844,
      "omet": 4845,
      "Ġdu": 4846,
      "Ġhighest": 4847,
      "rought": 4848,
      "Ġeffort": 4849,
      "Ġtopic": 4850,
      "ĠParty": 4851,
      "Ġpractices": 4852,
      "Te": 4853,
      "ori": 4854,
      "Ġfine": 4855,
      "ĠCopy": 4856,
      "Ġoperations": 4857,
      "Ġcritical": 4858,
      "UP": 4859,
      "åı": 4860,
      "Ġ01": 4861,
      "Ġgoes": 4862,
      "Ġslow": 4863,
      "ytics": 4864,
      "Ġhistor": 4865,
      "ĠPL": 4866,
      "ivil": 4867,
      "Ġdoor": 4868,
      "Ġroll": 4869,
      "Ġchanged": 4870,
      "Ġcleaning": 4871,
      "Ġcampaign": 4872,
      "84": 4873,
      "ĠMass": 4874,
      "Ġlas": 4875,
      "Ġsty": 4876,
      "iber": 4877,
      "Ġresist": 4878,
      "ĠFranc": 4879,
      "52": 4880,
      "bar": 4881,
      "reme": 4882,
      "ĠMex": 4883,
      "2024": 4884,
      "Ġrespond": 4885,
      "Ġslight": 4886,
      "Ġoffered": 4887,
      "ĠSCRIPT": 4888,
      "ĠOSHA": 4889,
      "ban": 4890,
      "Ġinher": 4891,
      "ĠBags": 4892,
      "osph": 4893,
      "Ġpassed": 4894,
      "ĠFinance": 4895,
      "ĠLab": 4896,
      "Ġspecif": 4897,
      "Ġpackage": 4898,
      "gor": 4899,
      "mark": 4900,
      "Ġwife": 4901,
      "enty": 4902,
      "oles": 4903,
      "Ġenable": 4904,
      "enses": 4905,
      "Ġinteresting": 4906,
      "Ġplatforms": 4907,
      "ĠEstate": 4908,
      "ä»": 4909,
      "ĠGar": 4910,
      "rie": 4911,
      "Ġhelpful": 4912,
      "Ġfamilies": 4913,
      "Ġdistinct": 4914,
      "ĠTodos": 4915,
      "rics": 4916,
      "ena": 4917,
      "ĠDog": 4918,
      "Ġcancer": 4919,
      "Ġcompared": 4920,
      "Ġprotected": 4921,
      "Ġstrategies": 4922,
      "Ġculture": 4923,
      "Pl": 4924,
      "Ġtold": 4925,
      "Ġthank": 4926,
      "ĠPo": 4927,
      "Ġspend": 4928,
      "Ġdecisions": 4929,
      "Ġapplicable": 4930,
      "ouncil": 4931,
      "IO": 4932,
      "iences": 4933,
      "ĠSep": 4934,
      "Ġlines": 4935,
      "ĠLow": 4936,
      "Ġwear": 4937,
      "respond": 4938,
      "Ġdead": 4939,
      "Ġrob": 4940,
      "ĠKeyword": 4941,
      "ĠGra": 4942,
      "ĠVe": 4943,
      "Ġshared": 4944,
      "ĠHeart": 4945,
      "Ġuseful": 4946,
      "Ġdemon": 4947,
      "aughter": 4948,
      "ĠLocation": 4949,
      "Ġeyes": 4950,
      "Ġgirls": 4951,
      "Ġflowers": 4952,
      "ĠPC": 4953,
      "Ġnames": 4954,
      "add": 4955,
      "ĠHor": 4956,
      "ffee": 4957,
      "ructure": 4958,
      "Ġreturned": 4959,
      "Ġafford": 4960,
      "Ġbenefit": 4961,
      "Ġupdates": 4962,
      "Ġaudience": 4963,
      "OK": 4964,
      "Ġsort": 4965,
      "rief": 4966,
      "ĠInquiry": 4967,
      "Ġ08": 4968,
      "anger": 4969,
      "ĠCentral": 4970,
      "IE": 4971,
      "mes": 4972,
      "Ġwaste": 4973,
      "ishes": 4974,
      "Ġfair": 4975,
      "ĠCam": 4976,
      "Ġlux": 4977,
      "ĠBaby": 4978,
      "ella": 4979,
      "ATE": 4980,
      "ĠMeet": 4981,
      "def": 4982,
      "iced": 4983,
      "ĠTour": 4984,
      "ĠTags": 4985,
      "Ġgain": 4986,
      "ĠWho": 4987,
      "Ġfert": 4988,
      "ĠTable": 4989,
      "Ġthous": 4990,
      "ĠMary": 4991,
      "Ġnet": 4992,
      "Ġrelax": 4993,
      "Ġbecame": 4994,
      "Ġshape": 4995,
      "gricult": 4996,
      "Ġâĸ": 4997,
      "ĠInstitute": 4998,
      "Ġreported": 4999,
      "Ġlargest": 5000,
      "itiz": 5001,
      "ĠTotal": 5002,
      "Ġthus": 5003,
      "Ġ75": 5004,
      "Ġreports": 5005,
      "ĠStandard": 5006,
      "AV": 5007,
      "with": 5008,
      "Ġden": 5009,
      "ĠTX": 5010,
      "ĠCross": 5011,
      "ĠBE": 5012,
      "Ġnice": 5013,
      "unning": 5014,
      "ĠOld": 5015,
      "Ġcontains": 5016,
      "ĠCOVID": 5017,
      "Ġbirth": 5018,
      "Ġdouble": 5019,
      "Ġhum": 5020,
      "stone": 5021,
      "oung": 5022,
      "Ġadapt": 5023,
      "ĠChinese": 5024,
      "itionally": 5025,
      "Ġstatus": 5026,
      "73": 5027,
      "Ġarriv": 5028,
      "ĠSex": 5029,
      "ANT": 5030,
      "lands": 5031,
      "azon": 5032,
      "Ġcrucial": 5033,
      "tw": 5034,
      "esbian": 5035,
      "ĠSa": 5036,
      "ĠCOM": 5037,
      "ĠNOT": 5038,
      "aks": 5039,
      "Ġcloud": 5040,
      "Ġresource": 5041,
      "ĠRepublic": 5042,
      "ept": 5043,
      "Ġtick": 5044,
      "ani": 5045,
      "Ġmother": 5046,
      "Ġdou": 5047,
      "ĠFile": 5048,
      "Ġstage": 5049,
      "ifying": 5050,
      "Ġcourt": 5051,
      "MP": 5052,
      "ĠDuring": 5053,
      "rael": 5054,
      "Ġexperts": 5055,
      "Ġvarieties": 5056,
      "Ġplayer": 5057,
      "Ad": 5058,
      "æĸ": 5059,
      "onom": 5060,
      "ĠSatur": 5061,
      "ĠAC": 5062,
      "ĠFrench": 5063,
      "ITH": 5064,
      "ĠSmith": 5065,
      "Ġselected": 5066,
      "Sp": 5067,
      "ints": 5068,
      "itely": 5069,
      "ĠSle": 5070,
      "Ġdoll": 5071,
      "Ġnor": 5072,
      "lying": 5073,
      "Ġround": 5074,
      "phone": 5075,
      "yal": 5076,
      "inical": 5077,
      "iture": 5078,
      "Ġhit": 5079,
      "ĠMel": 5080,
      "Ġworkers": 5081,
      "Ġgets": 5082,
      "Ġdrink": 5083,
      "letter": 5084,
      "ĠPhone": 5085,
      "ĠSystems": 5086,
      "350": 5087,
      "bed": 5088,
      "fit": 5089,
      "uit": 5090,
      "ĠMap": 5091,
      "Ġmanner": 5092,
      "Ġproviders": 5093,
      "party": 5094,
      "Ġprofessionals": 5095,
      "ME": 5096,
      "alent": 5097,
      "ĠAp": 5098,
      "ĠBul": 5099,
      "ĠFort": 5100,
      "Ġstru": 5101,
      "ailability": 5102,
      "ĠQue": 5103,
      "Ġhandle": 5104,
      "anguages": 5105,
      "Ġestablish": 5106,
      "BC": 5107,
      "look": 5108,
      "ano": 5109,
      "ĠPaper": 5110,
      "Ġ91": 5111,
      "Ġroof": 5112,
      "ARD": 5113,
      "Ġserver": 5114,
      "Ġmeasures": 5115,
      "61": 5116,
      "des": 5117,
      "ĠSund": 5118,
      "Ġ38": 5119,
      "ĠUnit": 5120,
      "105": 5121,
      "Ġplayed": 5122,
      "Ġerror": 5123,
      "ilitary": 5124,
      "td": 5125,
      "Ġtre": 5126,
      "ĠMov": 5127,
      "anda": 5128,
      "Ġregistered": 5129,
      "AH": 5130,
      "ait": 5131,
      "win": 5132,
      "ĠRank": 5133,
      "abin": 5134,
      "odcast": 5135,
      "Ġexception": 5136,
      "Ġkitchen": 5137,
      "Ġprovider": 5138,
      "ĠSmall": 5139,
      "ky": 5140,
      "Ġten": 5141,
      "ĠLake": 5142,
      "aked": 5143,
      "cluding": 5144,
      "Ġblue": 5145,
      "ĠCarol": 5146,
      "Ġfeeling": 5147,
      "Ġadvantage": 5148,
      "but": 5149,
      "haps": 5150,
      "ato": 5151,
      "agon": 5152,
      "ĠOper": 5153,
      "azine": 5154,
      "Ġmaintenance": 5155,
      "Ġcold": 5156,
      "ĠCell": 5157,
      "ĠOil": 5158,
      "Ġinstance": 5159,
      "Ġsurv": 5160,
      "gl": 5161,
      "ĠTri": 5162,
      "ĠTake": 5163,
      "ĠBed": 5164,
      "antity": 5165,
      "ryst": 5166,
      "irection": 5167,
      "ĠWhere": 5168,
      "Ġgreater": 5169,
      "Ġartist": 5170,
      "Ġbeauty": 5171,
      "Ġexactly": 5172,
      "Ġtown": 5173,
      "ĠCR": 5174,
      "ĠDress": 5175,
      "Ġexist": 5176,
      "Ġ33": 5177,
      "eph": 5178,
      "useum": 5179,
      "Ġconfig": 5180,
      "ĠPrem": 5181,
      "porary": 5182,
      "ĠAvailable": 5183,
      "Ġmeaning": 5184,
      "Ġthreat": 5185,
      "Ġgra": 5186,
      "Ġmemory": 5187,
      "ĠEmploy": 5188,
      "Ar": 5189,
      "PO": 5190,
      "Î¿": 5191,
      "Ġaward": 5192,
      "Ġmis": 5193,
      "roduction": 5194,
      "ĠMil": 5195,
      "Ġorg": 5196,
      "Ġcomput": 5197,
      "Ġbelie": 5198,
      "HT": 5199,
      "men": 5200,
      "Î±": 5201,
      "ĠSom": 5202,
      "ĠAff": 5203,
      "Ġnation": 5204,
      "cean": 5205,
      "ections": 5206,
      "Ġshopping": 5207,
      "formance": 5208,
      "Ġcomprehensive": 5209,
      "Ġtechniques": 5210,
      "Ġconnected": 5211,
      "ĠMail": 5212,
      "ĠGal": 5213,
      "cking": 5214,
      "redients": 5215,
      "ĠTravel": 5216,
      "Ġlaws": 5217,
      "rig": 5218,
      "Î¹": 5219,
      "ĠTax": 5220,
      "Ġrace": 5221,
      "ĠStudent": 5222,
      "Ġiniti": 5223,
      "rec": 5224,
      "ilder": 5225,
      "ĠET": 5226,
      "ĠContin": 5227,
      "Ġdecided": 5228,
      "Ġwait": 5229,
      "Ġnavigation": 5230,
      "ker": 5231,
      "isode": 5232,
      "Ġdrop": 5233,
      "180": 5234,
      "Ġsetting": 5235,
      "ĠDistrict": 5236,
      "ien": 5237,
      "Ġtail": 5238,
      "Ġfol": 5239,
      "Ġfill": 5240,
      "Ġmiles": 5241,
      "ĠMiss": 5242,
      "ĠFL": 5243,
      "ayer": 5244,
      "Ġstandards": 5245,
      "ĠCourt": 5246,
      "Ġ!": 5247,
      "ĠBath": 5248,
      "ĠWin": 5249,
      "ĠOl": 5250,
      "pload": 5251,
      "rowse": 5252,
      "Ġloans": 5253,
      "ĠHotel": 5254,
      "ributed": 5255,
      "ĠWindows": 5256,
      "Ġtruly": 5257,
      "NC": 5258,
      "Ġsets": 5259,
      "ĠTreat": 5260,
      "ĠTools": 5261,
      "Ġhar": 5262,
      "Ġreve": 5263,
      "ĠBand": 5264,
      "ĠBody": 5265,
      "andom": 5266,
      "antic": 5267,
      "ĠVers": 5268,
      "Ġdepending": 5269,
      "Ġschools": 5270,
      "ĠLearning": 5271,
      "Ġbudget": 5272,
      "aith": 5273,
      "mp": 5274,
      "icer": 5275,
      "ĠSqu": 5276,
      "ĠMur": 5277,
      "anta": 5278,
      "ternal": 5279,
      "Ġsmooth": 5280,
      "isco": 5281,
      "ĠBooks": 5282,
      "ĠGlass": 5283,
      "Ġbalance": 5284,
      "Ġmail": 5285,
      "Ġ09": 5286,
      "Ġtechnologies": 5287,
      "Ġconfirm": 5288,
      "aduate": 5289,
      "gorith": 5290,
      "ais": 5291,
      "Ġpolicies": 5292,
      "acor": 5293,
      "ĠAdvent": 5294,
      "Ġremov": 5295,
      "Ġcovered": 5296,
      "Ġnearly": 5297,
      "ĠSilver": 5298,
      "iability": 5299,
      "well": 5300,
      "ĠPrivate": 5301,
      "ART": 5302,
      "Ġcapacity": 5303,
      "ĠFeatures": 5304,
      "water": 5305,
      "onn": 5306,
      "Ġsector": 5307,
      "Ġfant": 5308,
      "Ġfight": 5309,
      "otic": 5310,
      "ĠLos": 5311,
      "sequ": 5312,
      "ĠAdminist": 5313,
      "ĠEnt": 5314,
      "Ġ2005": 5315,
      "Ġgoods": 5316,
      "Ġoperation": 5317,
      "Ġwindow": 5318,
      "++": 5319,
      "ĠSK": 5320,
      "Ġrepl": 5321,
      "Ġbegan": 5322,
      "Ġassign": 5323,
      "brid": 5324,
      "Ġfrontier": 5325,
      "Ġmaximum": 5326,
      "New": 5327,
      "hr": 5328,
      "ij": 5329,
      "mb": 5330,
      "Ġsgp": 5331,
      "Ġdru": 5332,
      "Ġheavy": 5333,
      "ĠCollect": 5334,
      "Ġmulti": 5335,
      "ĠRelated": 5336,
      "Ġir": 5337,
      "Ġapart": 5338,
      "ĠKids": 5339,
      "ĠClose": 5340,
      "Ġretail": 5341,
      "Ġforms": 5342,
      "vention": 5343,
      "ĠFrance": 5344,
      "Ġserve": 5345,
      "Ġfunctional": 5346,
      "reprene": 5347,
      "ĠSaturday": 5348,
      "ĠBO": 5349,
      "ĠBay": 5350,
      "unction": 5351,
      "ĠLou": 5352,
      "irus": 5353,
      "Ġefforts": 5354,
      "Ġdeposit": 5355,
      "Bu": 5356,
      "ĠÏ": 5357,
      "orial": 5358,
      "Ġfans": 5359,
      "ige": 5360,
      "ĠWrit": 5361,
      "Ġheat": 5362,
      "ĠEnvironment": 5363,
      "scribe": 5364,
      "ĠImage": 5365,
      "ĠSubject": 5366,
      "Ġestablished": 5367,
      "FT": 5368,
      "Ġbaby": 5369,
      "ĠLibrary": 5370,
      "anche": 5371,
      "Ġactual": 5372,
      "Ġdepend": 5373,
      "cons": 5374,
      "Ġtend": 5375,
      "osition": 5376,
      "Ġvoice": 5377,
      "ounder": 5378,
      "ĠUsing": 5379,
      "Ġthinking": 5380,
      "IVE": 5381,
      "PT": 5382,
      "hab": 5383,
      "¿½": 5384,
      "Ġstories": 5385,
      "Ġconcept": 5386,
      "Ġlisted": 5387,
      "Ġfriendly": 5388,
      "Ġmoving": 5389,
      "ĠCurrent": 5390,
      "ĠPract": 5391,
      "utely": 5392,
      "ĠAlthough": 5393,
      "ĠIsrael": 5394,
      "Ġcharges": 5395,
      "Ġspecifically": 5396,
      "Sc": 5397,
      "got": 5398,
      "hors": 5399,
      "ki": 5400,
      "Ġsources": 5401,
      "Ġhuge": 5402,
      "Ġ36": 5403,
      "ĠAnother": 5404,
      "Ġtransl": 5405,
      "Ġfunctions": 5406,
      "Ġtopics": 5407,
      "Ġapprox": 5408,
      "ba": 5409,
      "inst": 5410,
      "icious": 5411,
      "ĠDriv": 5412,
      "Ġvirtual": 5413,
      "Ġplaces": 5414,
      "ĠBeach": 5415,
      "Ġattempt": 5416,
      "Ġprofile": 5417,
      "ĠAutom": 5418,
      "Ġaccurate": 5419,
      "CD": 5420,
      "II": 5421,
      "Ġé": 5422,
      "atively": 5423,
      "Ġfabric": 5424,
      "iders": 5425,
      "Ġgacor": 5426,
      "ipl": 5427,
      "Ġneigh": 5428,
      "Ġhelping": 5429,
      "urniture": 5430,
      "INE": 5431,
      "ĠAdvanced": 5432,
      "Ġpicture": 5433,
      "Ġreleased": 5434,
      "ĠFlorida": 5435,
      "Ġdemonstr": 5436,
      "ĠCirc": 5437,
      "Ġrat": 5438,
      "ervation": 5439,
      "php": 5440,
      "redits": 5441,
      "Ġpeace": 5442,
      "Ġdefault": 5443,
      "ĠViews": 5444,
      "Ġimplementation": 5445,
      "Ġexercise": 5446,
      "App": 5447,
      "mary": 5448,
      "uable": 5449,
      "Ġtri": 5450,
      "edia": 5451,
      "Ġband": 5452,
      "Ġmap": 5453,
      "Ġexcept": 5454,
      "ocr": 5455,
      "aptop": 5456,
      "Ġorganizations": 5457,
      "ĠCountry": 5458,
      "Ġdescribed": 5459,
      "ĠBritish": 5460,
      "Tube": 5461,
      "ĠProm": 5462,
      "Ġproperly": 5463,
      "Ġallowed": 5464,
      "PL": 5465,
      "Ġì": 5466,
      "Ġbrought": 5467,
      "Ġloved": 5468,
      "ĠRev": 5469,
      "Ġreliable": 5470,
      "Ġprocesses": 5471,
      "ãģ®": 5472,
      "Ġfields": 5473,
      "Ġsusp": 5474,
      "Ug": 5475,
      "da": 5476,
      "Ġpieces": 5477,
      "Ġapplied": 5478,
      "à¤¤": 5479,
      "Ġefficiency": 5480,
      "ĠCommunic": 5481,
      "Ġfunds": 5482,
      "ĠBraz": 5483,
      "Ġcaused": 5484,
      "iation": 5485,
      "Ġahead": 5486,
      "Ġmaster": 5487,
      "Ġrank": 5488,
      "Ġdiscl": 5489,
      "ACT": 5490,
      "Ġrecommended": 5491,
      "ãĢģ": 5492,
      "ĠBecause": 5493,
      "YX": 5494,
      "Ġlab": 5495,
      "ĠLanguage": 5496,
      "ander": 5497,
      "Ġtech": 5498,
      "ĠPlace": 5499,
      "Ġframe": 5500,
      "Ġrent": 5501,
      "Ġdocuments": 5502,
      "GV": 5503,
      "Smart": 5504,
      "ĠCO": 5505,
      "ĠVen": 5506,
      "2022": 5507,
      "Ġtransform": 5508,
      "Ġsurround": 5509,
      "ĠAmazon": 5510,
      "Ġresponsibility": 5511,
      "Ġlarger": 5512,
      "\">": 5513,
      "GE": 5514,
      "Ġsand": 5515,
      "ĠCult": 5516,
      "ĠBM": 5517,
      "ura": 5518,
      "Ġspread": 5519,
      "Ġincred": 5520,
      "ying": 5521,
      "Ġsold": 5522,
      "Ġmental": 5523,
      "ĠDiamond": 5524,
      "una": 5525,
      "ĠLin": 5526,
      "agra": 5527,
      "ĠGh": 5528,
      "ĠChamp": 5529,
      "Ġscen": 5530,
      "Ġnumerous": 5531,
      "Ġtrading": 5532,
      "Ġenvironmental": 5533,
      "ĠCategories": 5534,
      "Ġbehavior": 5535,
      "hu": 5536,
      "Ġsem": 5537,
      "anish": 5538,
      "Ġdark": 5539,
      "ĠKnow": 5540,
      "Ġmyself": 5541,
      "ĠAccording": 5542,
      "Ġcompleted": 5543,
      "ĠToggle": 5544,
      "body": 5545,
      "pite": 5546,
      "Ã§": 5547,
      "ï¿½": 5548,
      "ĠSave": 5549,
      "ĠBaker": 5550,
      "ĠBitcoin": 5551,
      "ĠResults": 5552,
      "anned": 5553,
      "Ġpolitical": 5554,
      "ĠValley": 5555,
      "Ġhomes": 5556,
      "Man": 5557,
      "Ġdating": 5558,
      "ĠCong": 5559,
      "ELL": 5560,
      "ĠChristian": 5561,
      "Ġdatabase": 5562,
      "ĠGovernment": 5563,
      "ĠEr": 5564,
      "Ġspirit": 5565,
      "Ġ06": 5566,
      "Ġgrant": 5567,
      "ĠProtection": 5568,
      "å¤": 5569,
      "orrow": 5570,
      "ĠMad": 5571,
      "ulf": 5572,
      "ĠAdvert": 5573,
      "ĠLevel": 5574,
      "lementary": 5575,
      "Ġcorrespond": 5576,
      "\")": 5577,
      "83": 5578,
      "=\\": 5579,
      "IES": 5580,
      "á¹": 5581,
      "isher": 5582,
      "ĠCEO": 5583,
      "Ġglo": 5584,
      "ateur": 5585,
      "Ġ07": 5586,
      "encing": 5587,
      "Ġfee": 5588,
      "ĠBefore": 5589,
      "Ġframework": 5590,
      "ĠEngland": 5591,
      "och": 5592,
      "het": 5593,
      "Ġwants": 5594,
      "Ġmm": 5595,
      "ĠCanc": 5596,
      "ĠBow": 5597,
      "ĠEsc": 5598,
      "ordan": 5599,
      "Ġtypically": 5600,
      "going": 5601,
      "new": 5602,
      "Ġ}": 5603,
      "inos": 5604,
      "aled": 5605,
      "ĠFriend": 5606,
      "imb": 5607,
      "ĠRoom": 5608,
      "ĠEnergy": 5609,
      "Ġaffected": 5610,
      "Ġexpertise": 5611,
      "Ġadvertising": 5612,
      "Skip": 5613,
      "uries": 5614,
      "ĠComments": 5615,
      "Ġeconomy": 5616,
      "ĠRichard": 5617,
      "Ġopin": 5618,
      "Ġgather": 5619,
      "ĠFR": 5620,
      "ĠLabor": 5621,
      "apes": 5622,
      "Ġplus": 5623,
      "Ġ2007": 5624,
      "ĠAdditionally": 5625,
      "Ġcreative": 5626,
      "Ġcircum": 5627,
      "pass": 5628,
      "eless": 5629,
      "ĠMember": 5630,
      "Ġ1926": 5631,
      "Ġrain": 5632,
      "ĠMexico": 5633,
      "ZSB": 5634,
      "Ġsession": 5635,
      "ĠTues": 5636,
      "elry": 5637,
      "ĠTheir": 5638,
      "Ġmetal": 5639,
      "ĠPhoto": 5640,
      "Ġbeginning": 5641,
      "osphere": 5642,
      "ulations": 5643,
      "Ġfinish": 5644,
      "nesday": 5645,
      "ĠApplication": 5646,
      "PH": 5647,
      "erts": 5648,
      "ĠAwards": 5649,
      "ĠMS": 5650,
      "ĠWay": 5651,
      "Ġ04": 5652,
      "Ġadding": 5653,
      "Ġ2006": 5654,
      "Ġcombination": 5655,
      "Ġconcerns": 5656,
      "Ġstraight": 5657,
      "Ġporn": 5658,
      "ĠDocu": 5659,
      "ĠStyle": 5660,
      "Ġspot": 5661,
      "Ġindex": 5662,
      "Ġallowing": 5663,
      "Ġinstalled": 5664,
      "folio": 5665,
      "ML": 5666,
      "uction": 5667,
      "ä½": 5668,
      "Ġè": 5669,
      "Ġdiv": 5670,
      "ĠCash": 5671,
      "ĠMus": 5672,
      "Ġforce": 5673,
      "ĠNight": 5674,
      "oster": 5675,
      "ĠThurs": 5676,
      "ITY": 5677,
      "Ġhappen": 5678,
      "ĠIslands": 5679,
      "onial": 5680,
      "onym": 5681,
      "Ġrich": 5682,
      "Ġund": 5683,
      "arium": 5684,
      "ĠQuality": 5685,
      "ĠCalendar": 5686,
      "Ġmovement": 5687,
      "https": 5688,
      "Ġguarantee": 5689,
      "ĠConnect": 5690,
      "ĠSociety": 5691,
      "Ġhab": 5692,
      "ĠWestern": 5693,
      "umps": 5694,
      "Ġuns": 5695,
      "Ġ05": 5696,
      "Ġorigin": 5697,
      "Ġinjury": 5698,
      "ĠRobert": 5699,
      "iers": 5700,
      "Ġfuck": 5701,
      "Ġbag": 5702,
      "ĠTre": 5703,
      "ĠCouncil": 5704,
      "Ġhour": 5705,
      "ĠBrown": 5706,
      "Ġrule": 5707,
      "ĠYoung": 5708,
      "Ġsaw": 5709,
      "Ġcommunities": 5710,
      "ĠText": 5711,
      "Ġowner": 5712,
      "Ġadvance": 5713,
      "Ġassistance": 5714,
      "81": 5715,
      "bra": 5716,
      "ĠPO": 5717,
      "ĠMarketing": 5718,
      "Ġalternative": 5719,
      "iac": 5720,
      "Ñı": 5721,
      "ĠEss": 5722,
      "rian": 5723,
      "aven": 5724,
      "ĠSpring": 5725,
      "ĠEnd": 5726,
      "Ġclasses": 5727,
      "Ġparent": 5728,
      "ĠVirgin": 5729,
      "?\"": 5730,
      "WS": 5731,
      "log": 5732,
      "sm": 5733,
      "Ġsweet": 5734,
      "Ġtom": 5735,
      "Ġmac": 5736,
      "ĠSelf": 5737,
      "ĠPS": 5738,
      "ĠGallery": 5739,
      "Ġatm": 5740,
      "Ġdesigns": 5741,
      "being": 5742,
      "Ġclassic": 5743,
      "Ġpopulation": 5744,
      "UC": 5745,
      "car": 5746,
      "kl": 5747,
      "yr": 5748,
      "Ġicon": 5749,
      "Ġbattery": 5750,
      "ĠTown": 5751,
      "ĠBase": 5752,
      "oted": 5753,
      "ĠWITH": 5754,
      "ĠFact": 5755,
      "ireless": 5756,
      "Ġcontroll": 5757,
      "Ġscore": 5758,
      "IZ": 5759,
      "Res": 5760,
      "Ġmale": 5761,
      "eline": 5762,
      "Ġsched": 5763,
      "Ġtherefore": 5764,
      "Ġposted": 5765,
      "Ġattack": 5766,
      "Ġpayments": 5767,
      "Ġstatement": 5768,
      "Ġinstallation": 5769,
      "Ġcompliance": 5770,
      "Ġdetailed": 5771,
      "ĠAngeles": 5772,
      "BS": 5773,
      "stract": 5774,
      "Ġgar": 5775,
      "Ġjew": 5776,
      "ĠGirls": 5777,
      "Â°": 5778,
      "ĠSar": 5779,
      "Ġdur": 5780,
      "ĠCL": 5781,
      "ĠFREE": 5782,
      "Ġvict": 5783,
      "undred": 5784,
      "Ġsubmit": 5785,
      "hol": 5786,
      "ĠPur": 5787,
      "Ġbecomes": 5788,
      "Ġtraffic": 5789,
      "ĠCentre": 5790,
      "ĠStudy": 5791,
      "Ġconsumer": 5792,
      "ĠSunday": 5793,
      "cell": 5794,
      "fe": 5795,
      "à®": 5796,
      "çĶ": 5797,
      "Ġaf": 5798,
      "Ġwelcome": 5799,
      "Ġmagn": 5800,
      "ĠBal": 5801,
      "ĠWild": 5802,
      "ĠWelcome": 5803,
      "ĠEvent": 5804,
      "iller": 5805,
      "berg": 5806,
      "Ġchemical": 5807,
      "Ġpresence": 5808,
      "Ġmarkets": 5809,
      "Ġdriving": 5810,
      "Ġtherapy": 5811,
      "ÙĦ": 5812,
      "ĠWil": 5813,
      "ĠField": 5814,
      "iration": 5815,
      "ĠNick": 5816,
      "ria": 5817,
      "ĠVari": 5818,
      "Ġ34": 5819,
      "Ġimportance": 5820,
      "Ġdiet": 5821,
      "ĠSteel": 5822,
      "Ġsignificantly": 5823,
      "ĠWednesday": 5824,
      "ocolate": 5825,
      "Ġwarranty": 5826,
      "82": 5827,
      "ias": 5828,
      "Îµ": 5829,
      "Ñĭ": 5830,
      "esome": 5831,
      "ĠIts": 5832,
      "thlet": 5833,
      "osis": 5834,
      "ĠInfo": 5835,
      "ustr": 5836,
      "Ġsuitable": 5837,
      "Ġhotel": 5838,
      "Ġsymbol": 5839,
      "Ġevalu": 5840,
      "Ð²": 5841,
      "Ġfaster": 5842,
      "---": 5843,
      "ĠUnion": 5844,
      "Ġgrand": 5845,
      "Ġremote": 5846,
      "Ġchanging": 5847,
      "ĠMicrosoft": 5848,
      "friendly": 5849,
      "ĠFoundation": 5850,
      "Ġcandid": 5851,
      "Ġball": 5852,
      "ĠPH": 5853,
      "Ġscient": 5854,
      "Ġdeveloping": 5855,
      "Ġannual": 5856,
      "Des": 5857,
      "cient": 5858,
      "Ø§": 5859,
      "inar": 5860,
      "eler": 5861,
      "Ġstick": 5862,
      "atever": 5863,
      "ocal": 5864,
      "2023": 5865,
      "weight": 5866,
      "ĠTrust": 5867,
      "ĠGrand": 5868,
      "ambling": 5869,
      "Ġdefinitely": 5870,
      "ĠThomas": 5871,
      "rors": 5872,
      "van": 5873,
      "Ġdro": 5874,
      "ĠCand": 5875,
      "Ġshoot": 5876,
      "Ġnotes": 5877,
      "asting": 5878,
      "ĠChapter": 5879,
      "ĠScott": 5880,
      "END": 5881,
      "Ġrare": 5882,
      "Ġdomain": 5883,
      "ĠMedicine": 5884,
      "Id": 5885,
      "MT": 5886,
      "å®": 5887,
      "Ġcm": 5888,
      "roph": 5889,
      "Ġlack": 5890,
      "under": 5891,
      "emic": 5892,
      "ĠJes": 5893,
      "earing": 5894,
      "Ġimag": 5895,
      "ilet": 5896,
      "Ġcolumn": 5897,
      "duces": 5898,
      "Ġteams": 5899,
      "atalog": 5900,
      "ĠChoose": 5901,
      "ius": 5902,
      "pan": 5903,
      "ĠAsia": 5904,
      "UST": 5905,
      "Ġcertainly": 5906,
      "ĠCustomer": 5907,
      "ĠSoftware": 5908,
      "test": 5909,
      "reens": 5910,
      "ĠPDF": 5911,
      "istan": 5912,
      "ĠJos": 5913,
      "rupt": 5914,
      "Ġcolors": 5915,
      "Ġrestrict": 5916,
      "ĠAnalysis": 5917,
      "ĠThursday": 5918,
      "vd": 5919,
      "Ġhus": 5920,
      "ĠBer": 5921,
      "ĠWalk": 5922,
      "ĠRos": 5923,
      "ĠLic": 5924,
      "Ġstri": 5925,
      "Ġsole": 5926,
      "Ġcollege": 5927,
      "ĠLeague": 5928,
      "Ġcarbon": 5929,
      "Ġoblig": 5930,
      "ĠEdition": 5931,
      "Ġsaying": 5932,
      "ĠInsurance": 5933,
      "Ġinfluence": 5934,
      "Ġap": 5935,
      "Ġsizes": 5936,
      "Ġcra": 5937,
      "edy": 5938,
      "ulty": 5939,
      "ĠYouTube": 5940,
      "Ġindependent": 5941,
      "Ġemployee": 5942,
      "Ġelectric": 5943,
      "Ġappearance": 5944,
      "Ġachie": 5945,
      "Ġarchitect": 5946,
      "ĠTuesday": 5947,
      "FC": 5948,
      "ĠSyn": 5949,
      "ĠMic": 5950,
      "ĠLi": 5951,
      "ĠJo": 5952,
      "Ġads": 5953,
      "Ġteen": 5954,
      "2020": 5955,
      "Ġarticles": 5956,
      "Ġvisual": 5957,
      "ĠSmart": 5958,
      "Ġcoverage": 5959,
      "ĠJapanese": 5960,
      "Ġstrugg": 5961,
      "oor": 5962,
      "rim": 5963,
      "Ġfruit": 5964,
      "ĠDiv": 5965,
      "aylor": 5966,
      "ĠSpace": 5967,
      "orney": 5968,
      "Ġformat": 5969,
      "Ġgeneration": 5970,
      "aW": 5971,
      "Ġtree": 5972,
      "ĠMD": 5973,
      "Ġforum": 5974,
      "igious": 5975,
      "ĠFer": 5976,
      "ĠHom": 5977,
      "uns": 5978,
      "estyle": 5979,
      "ĠThrough": 5980,
      "ificate": 5981,
      "Ġremains": 5982,
      "ĠNeed": 5983,
      "ĠIran": 5984,
      "ĠQuestions": 5985,
      "%)": 5986,
      "cious": 5987,
      "han": 5988,
      "rum": 5989,
      "Ġbreat": 5990,
      "ĠCur": 5991,
      "ĠFloor": 5992,
      "ĠCommercial": 5993,
      "Ġ71": 5994,
      "Ġscale": 5995,
      "merce": 5996,
      "Ġactions": 5997,
      "ĠBlood": 5998,
      "ĠSche": 5999,
      "Ġinternal": 6000,
      "71": 6001,
      "FL": 6002,
      "yp": 6003,
      "åĪ": 6004,
      "Ġ]": 6005,
      "Ġtab": 6006,
      "Ġgave": 6007,
      "ĠFarm": 6008,
      "ĠLE": 6009,
      "ĠEmer": 6010,
      "Ġheard": 6011,
      "Ġplug": 6012,
      "ĠParts": 6013,
      "Ġ509": 6014,
      "aught": 6015,
      "ĠRussian": 6016,
      "Val": 6017,
      "gal": 6018,
      "gage": 6019,
      "ĠMade": 6020,
      "ĠBob": 6021,
      "Ġvul": 6022,
      "Ġ300": 6023,
      "Ġkept": 6024,
      "Ġimpress": 6025,
      "Ġsexual": 6026,
      "ora": 6027,
      "Ġsociety": 6028,
      "Ġfashion": 6029,
      "ĠAge": 6030,
      "ĠStaff": 6031,
      "tech": 6032,
      "ĠAndroid": 6033,
      "ĠPriceSmart": 6034,
      "ĠClassic": 6035,
      "Ġlandsc": 6036,
      "ĠCategory": 6037,
      "CO": 6038,
      "Qu": 6039,
      "RC": 6040,
      "gment": 6041,
      "inic": 6042,
      "ati": 6043,
      "ĠCrypt": 6044,
      "Ġlock": 6045,
      "Ġhelped": 6046,
      "Ġacadem": 6047,
      "Ġearlier": 6048,
      "Ġmovie": 6049,
      "You": 6050,
      "top": 6051,
      "zen": 6052,
      "ĠCAR": 6053,
      "ĠMid": 6054,
      "ĠDeng": 6055,
      "ĠHaw": 6056,
      "Ġstuff": 6057,
      "rome": 6058,
      "ipes": 6059,
      "Ġunless": 6060,
      "ĠWhich": 6061,
      "Ġowners": 6062,
      "ĠEquipment": 6063,
      "PN": 6064,
      "Ġbill": 6065,
      "ĠBott": 6066,
      "ĠJersey": 6067,
      "Ġhaz": 6068,
      "ĠShort": 6069,
      "Ġvision": 6070,
      "Ġfilter": 6071,
      "Ġcells": 6072,
      "ĠPassword": 6073,
      "idelines": 6074,
      "Ġabsolutely": 6075,
      "equ": 6076,
      "missions": 6077,
      "uous": 6078,
      "Ġfan": 6079,
      "Ġmill": 6080,
      "ĠBall": 6081,
      "ĠNO": 6082,
      "ĠNatural": 6083,
      "Ġnovel": 6084,
      "Ġâľ": 6085,
      "ĠBeaut": 6086,
      "Ġentertain": 6087,
      "Ġraised": 6088,
      "Ġcontinued": 6089,
      "retch": 6090,
      "Ġannounced": 6091,
      "Ġfemale": 6092,
      "asketball": 6093,
      "110": 6094,
      "kes": 6095,
      "wall": 6096,
      "Ġpair": 6097,
      "Ġmal": 6098,
      "ĠFest": 6099,
      "ĠLoad": 6100,
      "ĠGree": 6101,
      "Ġ03": 6102,
      "ATH": 6103,
      "verse": 6104,
      "Ġolder": 6105,
      "Ġpictures": 6106,
      "pre": 6107,
      "itan": 6108,
      "Ġhundred": 6109,
      "ĠHapp": 6110,
      "izer": 6111,
      "Ġdescription": 6112,
      "Ġagency": 6113,
      "Ġtrain": 6114,
      "Ġminimum": 6115,
      "Ġstudies": 6116,
      "Ġsolid": 6117,
      "Ġdelivered": 6118,
      "Ġpreferences": 6119,
      "Ġnavigate": 6120,
      "Ġconvenient": 6121,
      "kg": 6122,
      "pot": 6123,
      "Ġtrip": 6124,
      "Ġsen": 6125,
      "Ġnamed": 6126,
      "ĠWord": 6127,
      "ĠJordan": 6128,
      "class": 6129,
      "Ġaccident": 6130,
      "ĠCoast": 6131,
      "ĠAfrican": 6132,
      "Ġadministrator": 6133,
      "div": 6134,
      "iro": 6135,
      "Ġwine": 6136,
      "ĠCup": 6137,
      "olars": 6138,
      "rier": 6139,
      "ĠInf": 6140,
      "tegr": 6141,
      "Ġcarefully": 6142,
      "Ġlots": 6143,
      "Ġtracking": 6144,
      "ĠItaly": 6145,
      "Ġfelt": 6146,
      "ĠIll": 6147,
      "ĠDu": 6148,
      "ĠRh": 6149,
      "acific": 6150,
      "ordin": 6151,
      "ĠPlus": 6152,
      "Ġveget": 6153,
      "Ġeducational": 6154,
      "ĠRemember": 6155,
      "ĠBuilding": 6156,
      "Ġinstructions": 6157,
      "Ġdynamic": 6158,
      "GA": 6159,
      "Ġcraft": 6160,
      "Ġrepe": 6161,
      "Ġreference": 6162,
      "ĠRights": 6163,
      "ĠHell": 6164,
      "ĠItems": 6165,
      "ĠExchange": 6166,
      "ĠFeed": 6167,
      "Ġeffectively": 6168,
      "Ġfulf": 6169,
      "ĠFuneral": 6170,
      "Ġtrends": 6171,
      "RL": 6172,
      "hand": 6173,
      "Ġselling": 6174,
      "Ġpull": 6175,
      "roy": 6176,
      "ĠBud": 6177,
      "ĠRo": 6178,
      "ĠRoman": 6179,
      "urning": 6180,
      "ĠLine": 6181,
      "Ġalgorith": 6182,
      "ĠVan": 6183,
      "iki": 6184,
      "Ġcontext": 6185,
      "Ġrap": 6186,
      "Ġsitu": 6187,
      "ĠLegal": 6188,
      "Ġschedule": 6189,
      "Bl": 6190,
      "Tara": 6191,
      "Ðĵ": 6192,
      "Ġcotton": 6193,
      "ĠTips": 6194,
      "abet": 6195,
      "ĠYOU": 6196,
      "Ġreput": 6197,
      "Ġmessages": 6198,
      "ĠZMYYC": 6199,
      "ĠWiFi": 6200,
      "ĠPain": 6201,
      "ĠTeen": 6202,
      "AST": 6203,
      "ãĥ¼": 6204,
      "OME": 6205,
      "âĢ²âĢ²": 6206,
      "Ġwonderful": 6207,
      "ĠDarang": 6208,
      "ĠCopyright": 6209,
      "Taraon": 6210,
      "vas": 6211,
      "âĤ": 6212,
      "ĠCover": 6213,
      "Ġ37": 6214,
      "Ġcompar": 6215,
      "Ġproud": 6216,
      "Ġcentral": 6217,
      "Stop": 6218,
      "Ġpresented": 6219,
      "ĠReviews": 6220,
      "Ġpoor": 6221,
      "Ġcategory": 6222,
      "point": 6223,
      "ĠSales": 6224,
      "ĠMA": 6225,
      "unte": 6226,
      "Ġshares": 6227,
      "Ġtele": 6228,
      "ĠShould": 6229,
      "ĠAsh": 6230,
      "ĠTrump": 6231,
      "Ġdistribution": 6232,
      "ĠSolutions": 6233,
      "life": 6234,
      "Ġdirection": 6235,
      "Ġthread": 6236,
      "urers": 6237,
      "unately": 6238,
      "ĠLas": 6239,
      "Ġunc": 6240,
      "ĠSeason": 6241,
      "ĠAddress": 6242,
      "Ġinformed": 6243,
      "ĠRankings": 6244,
      "fa": 6245,
      "gia": 6246,
      "mo": 6247,
      "rich": 6248,
      "ĠKim": 6249,
      "plies": 6250,
      "ocket": 6251,
      "ĠExam": 6252,
      "Ġdecor": 6253,
      "ĠStudies": 6254,
      "ĠClear": 6255,
      "Ġcircumst": 6256,
      "Ġspl": 6257,
      "esh": 6258,
      "Ġmission": 6259,
      "ĠSat": 6260,
      "Ġliter": 6261,
      "amless": 6262,
      "ĠEasy": 6263,
      "ears": 6264,
      "Ġchat": 6265,
      "Ġjobs": 6266,
      "ĠSport": 6267,
      "ĠConference": 6268,
      "Ġhappens": 6269,
      "Ġletter": 6270,
      "Ġholiday": 6271,
      "Ġfeedback": 6272,
      "ĠGermany": 6273,
      "Ġthousands": 6274,
      "rystal": 6275,
      "IB": 6276,
      "itutions": 6277,
      "ĠFair": 6278,
      "tein": 6279,
      "Ġrecords": 6280,
      "Ġinstru": 6281,
      "Ġaccepted": 6282,
      "________________": 6283,
      "Ġseparate": 6284,
      "page": 6285,
      "Ġod": 6286,
      "ĠChurch": 6287,
      "rowing": 6288,
      "ĠCloud": 6289,
      "ĠArts": 6290,
      "Ġvaluable": 6291,
      "ĠStudents": 6292,
      "Ġpromote": 6293,
      "!\"": 6294,
      "mar": 6295,
      "nel": 6296,
      "iny": 6297,
      "Ġfather": 6298,
      "Ġbrain": 6299,
      "Ġdiverse": 6300,
      "ĠAction": 6301,
      "ĠFashion": 6302,
      "ĠVict": 6303,
      "Ġ72": 6304,
      "Ġguard": 6305,
      "Ġimproved": 6306,
      "Ġbuying": 6307,
      "Ġchallenge": 6308,
      "Ġworry": 6309,
      "Ġ`": 6310,
      "ĠCat": 6311,
      "ĠLittle": 6312,
      "Ġiterator": 6313,
      "Ġwhose": 6314,
      "oga": 6315,
      "Ġflu": 6316,
      "Ġmachines": 6317,
      "ĠStrateg": 6318,
      "ĠOhio": 6319,
      "made": 6320,
      "ï¸": 6321,
      "Ġmiddle": 6322,
      "Ġec": 6323,
      "apore": 6324,
      "Ġauthentic": 6325,
      "Ġsigns": 6326,
      "Ġaccessible": 6327,
      "ĠFrank": 6328,
      "ĠAuto": 6329,
      "Ġfunding": 6330,
      "Ġrelationships": 6331,
      "fts": 6332,
      "ju": 6333,
      "ĠEV": 6334,
      "ĠJud": 6335,
      "ĠTele": 6336,
      "ĠAsk": 6337,
      "ername": 6338,
      "Ġleads": 6339,
      "Ġchoices": 6340,
      "Ġboost": 6341,
      "ĠBrazil": 6342,
      "Ġcris": 6343,
      "Ġlanguages": 6344,
      "usi": 6345,
      "illage": 6346,
      "Ġarrest": 6347,
      "ORT": 6348,
      "Ġentry": 6349,
      "Ġlocations": 6350,
      "arsh": 6351,
      "beat": 6352,
      "Ġcontinues": 6353,
      "Ġinterests": 6354,
      "Ġprepared": 6355,
      "Ġlov": 6356,
      "ĠBY": 6357,
      "ĠGolf": 6358,
      "ĠUt": 6359,
      "Ġspent": 6360,
      "Ġfinding": 6361,
      "ĠSecond": 6362,
      "Ġfacility": 6363,
      "ĠLimited": 6364,
      "Ġingredients": 6365,
      "Ġcommitment": 6366,
      "Cont": 6367,
      "TV": 6368,
      "UG": 6369,
      "mond": 6370,
      "atches": 6371,
      "Ġpool": 6372,
      "umer": 6373,
      "ĠTech": 6374,
      "Ġacid": 6375,
      "Ġelig": 6376,
      "Ġaffordable": 6377,
      "Ġdoubt": 6378,
      "Tr": 6379,
      "UE": 6380,
      "rease": 6381,
      "ĠSav": 6382,
      "Ġlabor": 6383,
      "ĠLtd": 6384,
      "riz": 6385,
      "Ġexclusive": 6386,
      "Ġflat": 6387,
      "Ġparagraph": 6388,
      "ographic": 6389,
      "Ġfacilities": 6390,
      "Ġcompetition": 6391,
      "Ġcrossed": 6392,
      "Ġwaiting": 6393,
      "Ġhusband": 6394,
      "()": 6395,
      "LY": 6396,
      "Le": 6397,
      "iat": 6398,
      "ns": 6399,
      "Î½": 6400,
      "ptoms": 6401,
      "Ġinsights": 6402,
      "Ġkeeping": 6403,
      "Ġexciting": 6404,
      "ĠTyp": 6405,
      "Ġdiagn": 6406,
      "ĠItalian": 6407,
      "150": 6408,
      "mistry": 6409,
      "pin": 6410,
      "Ġda": 6411,
      "ĠPorn": 6412,
      "ĠPsych": 6413,
      "ĠMir": 6414,
      "owers": 6415,
      "ĠGB": 6416,
      "ĠUlt": 6417,
      "ĠStorage": 6418,
      "Ġdeb": 6419,
      "Ġaccounts": 6420,
      "Ġserved": 6421,
      "Ġbrings": 6422,
      "Ġtransmission": 6423,
      "Ġdecl": 6424,
      "Ġfinished": 6425,
      "IONS": 6426,
      "Ġinvestors": 6427,
      "iliar": 6428,
      "ĠâĨĲ": 6429,
      "elligence": 6430,
      "Ġ~": 6431,
      "ĠSym": 6432,
      "ĠTry": 6433,
      "Ġ1000": 6434,
      "ĠVeg": 6435,
      "Ġrig": 6436,
      "ĠWeight": 6437,
      "2019": 6438,
      "ĠSpr": 6439,
      "Ġaffili": 6440,
      "Ġforeign": 6441,
      "WE": 6442,
      "Ġcourses": 6443,
      "ĠRing": 6444,
      "Ġhealthcare": 6445,
      "Ġensures": 6446,
      "irds": 6447,
      "Ġrisks": 6448,
      "ĠProfessional": 6449,
      "ĠCasino": 6450,
      "300": 6451,
      "Book": 6452,
      "Qg": 6453,
      "born": 6454,
      "uzz": 6455,
      "ĠSens": 6456,
      "rote": 6457,
      "Ġlose": 6458,
      "ĠJim": 6459,
      "Ġsequ": 6460,
      "Ġplastic": 6461,
      "Ġcomponents": 6462,
      "Ġresol": 6463,
      "ONE": 6464,
      "Ġ2000": 6465,
      "Ġoperating": 6466,
      "ĠPerformance": 6467,
      "OUN": 6468,
      "ĠLinks": 6469,
      "ĠOptions": 6470,
      "Ġpredict": 6471,
      "ï¸ı": 6472,
      "jp": 6473,
      "åĲ": 6474,
      "Ġsch": 6475,
      "eder": 6476,
      "ĠTru": 6477,
      "ĠTilly": 6478,
      "ĠCOL": 6479,
      "ulated": 6480,
      "essions": 6481,
      "Ġaren": 6482,
      "Ġregistration": 6483,
      "Ġdefined": 6484,
      "ILL": 6485,
      "Ġfacts": 6486,
      "Ġpoly": 6487,
      "Ġkinds": 6488,
      "ĠGeorge": 6489,
      "Key": 6490,
      "bum": 6491,
      "ĠCredit": 6492,
      "Ġ42": 6493,
      "Ġremark": 6494,
      "ĠResp": 6495,
      "Ġadvis": 6496,
      "Ġsupported": 6497,
      "fast": 6498,
      "hire": 6499,
      "iy": 6500,
      "ĠAk": 6501,
      "iger": 6502,
      "Ġalthough": 6503,
      "0000": 6504,
      "andemic": 6505,
      "grade": 6506,
      "Ġbrands": 6507,
      "ITE": 6508,
      "Ġcollected": 6509,
      "Ġfrequ": 6510,
      "Ġaspects": 6511,
      "Ġoccasion": 6512,
      "IAL": 6513,
      "Ġcore": 6514,
      "Ġfav": 6515,
      "star": 6516,
      "ĠRom": 6517,
      "uma": 6518,
      "erves": 6519,
      "Ġpregn": 6520,
      "Ġcommitted": 6521,
      "Ġextensive": 6522,
      "Ġcookie": 6523,
      "Ġcalls": 6524,
      "ĠAssist": 6525,
      "Ġpublish": 6526,
      "ĠReturns": 6527,
      "gypt": 6528,
      "Ġmattress": 6529,
      "DS": 6530,
      "ao": 6531,
      "outhern": 6532,
      "Ġpsych": 6533,
      "ĠSold": 6534,
      "ardens": 6535,
      "iana": 6536,
      "Ġsignal": 6537,
      "Ġedge": 6538,
      "Ġshowing": 6539,
      "ushing": 6540,
      "Ġstring": 6541,
      "Ġopening": 6542,
      "Ġpractical": 6543,
      "ĠPlanning": 6544,
      "',": 6545,
      "po": 6546,
      "Ð¼": 6547,
      "Ġbound": 6548,
      "astern": 6549,
      "ĠPER": 6550,
      "Ġgarden": 6551,
      "ĠFast": 6552,
      "Ġ150": 6553,
      "riage": 6554,
      "Ġchannel": 6555,
      "eller": 6556,
      "Ġleather": 6557,
      "Ġprincip": 6558,
      "Ġfollowed": 6559,
      "ĠShel": 6560,
      "Ġtests": 6561,
      "Ġissued": 6562,
      "ĠPoly": 6563,
      "related": 6564,
      "Ġmentioned": 6565,
      "ĠJesus": 6566,
      "king": 6567,
      "uj": 6568,
      "ype": 6569,
      "Ġwed": 6570,
      "Ġbike": 6571,
      "ĠTok": 6572,
      "ador": 6573,
      "Ġstone": 6574,
      "ĠUr": 6575,
      "ĠShoes": 6576,
      "à¤ķ": 6577,
      "Ġattend": 6578,
      "ĠDoes": 6579,
      "Ġlearned": 6580,
      "Ġturned": 6581,
      "Ġpreviously": 6582,
      "Value": 6583,
      "bd": 6584,
      "ĠCool": 6585,
      "iled": 6586,
      "ĠBenef": 6587,
      "izz": 6588,
      "Ġunits": 6589,
      "Ġviagra": 6590,
      "Ġlicense": 6591,
      "ĠWilliams": 6592,
      "Ġpremium": 6593,
      "].": 6594,
      "eb": 6595,
      "fuji": 6596,
      "Ġcitiz": 6597,
      "ĠBang": 6598,
      "ĠDim": 6599,
      "ĠManufact": 6600,
      "ĠSingapore": 6601,
      "ĠMachine": 6602,
      "CL": 6603,
      "bury": 6604,
      "ĠFurther": 6605,
      "apy": 6606,
      "Ġperhaps": 6607,
      "ĠAsian": 6608,
      "Ġbackground": 6609,
      "ĠSubscribe": 6610,
      "ĠActiv": 6611,
      "ĠCharles": 6612,
      "front": 6613,
      "DA": 6614,
      "Ġeth": 6615,
      "ĠPast": 6616,
      "agers": 6617,
      "odies": 6618,
      "Ġchapter": 6619,
      "anny": 6620,
      "Ġreceiving": 6621,
      "Ġhimself": 6622,
      "ĠElectric": 6623,
      "ĠEarth": 6624,
      "Name": 6625,
      "west": 6626,
      "àª": 6627,
      "åŃ": 6628,
      "atar": 6629,
      "Ġtow": 6630,
      "Ġinput": 6631,
      "ĠCorn": 6632,
      "ĠPot": 6633,
      "ĠFederal": 6634,
      "ĠLu": 6635,
      "Ġring": 6636,
      "ĠKore": 6637,
      "ĠKitchen": 6638,
      "Ġoutdoor": 6639,
      "awn": 6640,
      "ĠPrim": 6641,
      "Ġfocused": 6642,
      "ĠCONT": 6643,
      "Ġschedul": 6644,
      "yth": 6645,
      "Ġtag": 6646,
      "Ġtrees": 6647,
      "rell": 6648,
      "Ġcounter": 6649,
      "Ġwel": 6650,
      "ĠCase": 6651,
      "Ġreality": 6652,
      "Ġeat": 6653,
      "ĠChair": 6654,
      "obility": 6655,
      "iquid": 6656,
      "ĠCommon": 6657,
      "Ġperfectly": 6658,
      "Ġperspect": 6659,
      "Ġpp": 6660,
      "Ġbol": 6661,
      "ĠPeter": 6662,
      "see": 6663,
      "asters": 6664,
      "Ġsupporting": 6665,
      "ussy": 6666,
      "ĠStudio": 6667,
      "ĠSingle": 6668,
      "oria": 6669,
      "Ġma": 6670,
      "ĠPear": 6671,
      "Ġyield": 6672,
      "Ġheight": 6673,
      "Ġchain": 6674,
      "ocation": 6675,
      "Ġleaves": 6676,
      "Ġ43": 6677,
      "Ġrecovery": 6678,
      "Ġ2003": 6679,
      "ĠImpro": 6680,
      "ĠMetal": 6681,
      "ĠSummer": 6682,
      "Ġpanel": 6683,
      "NY": 6684,
      "Ġtrial": 6685,
      "itage": 6686,
      "ĠHart": 6687,
      "ulate": 6688,
      "cknow": 6689,
      "Ġvit": 6690,
      "ĠComputer": 6691,
      "ĠRequest": 6692,
      "Ġaccommod": 6693,
      ".[": 6694,
      "BO": 6695,
      "arian": 6696,
      "Ġmut": 6697,
      "ĠTits": 6698,
      "ĠCredits": 6699,
      "ĠBill": 6700,
      "ĠRoll": 6701,
      "Ġsoil": 6702,
      "ĠAdditional": 6703,
      "ĠVisit": 6704,
      "Ġwalking": 6705,
      "ĠGerman": 6706,
      "ĠAcademy": 6707,
      "Ġarrang": 6708,
      "ĠProperty": 6709,
      "Script": 6710,
      "Time": 6711,
      "Ġfra": 6712,
      "Ġboy": 6713,
      "etime": 6714,
      "Ġteeth": 6715,
      "Ġmaybe": 6716,
      "Ġrock": 6717,
      "Ġearth": 6718,
      "Ġcauses": 6719,
      "ĠRussia": 6720,
      "Ġinnovation": 6721,
      "SH": 6722,
      "VR": 6723,
      "spe": 6724,
      "Ġmist": 6725,
      "lets": 6726,
      "ĠMiddle": 6727,
      "Ġeight": 6728,
      "Ġbecoming": 6729,
      "ĠGraph": 6730,
      "ĠNut": 6731,
      "ĠInsp": 6732,
      "Ġsea": 6733,
      "Ġdisp": 6734,
      "ĠSpe": 6735,
      "Ġsmaller": 6736,
      "Ġfrequently": 6737,
      "holders": 6738,
      "ĠExperience": 6739,
      "draw": 6740,
      "inting": 6741,
      "Ġgaming": 6742,
      "ĠEgypt": 6743,
      "Ġseat": 6744,
      "acter": 6745,
      "rylic": 6746,
      "Ġneck": 6747,
      "clude": 6748,
      "Ġremoved": 6749,
      "exp": 6750,
      "Ġfunctionality": 6751,
      "ĠArea": 6752,
      "Ġtalking": 6753,
      "Ġslightly": 6754,
      "$)": 6755,
      "nt": 6756,
      "ĠPick": 6757,
      "ĠHR": 6758,
      "acc": 6759,
      "Ġdoctor": 6760,
      "ĠDeep": 6761,
      "iveness": 6762,
      "ÑĤÑĮ": 6763,
      "Ġobjects": 6764,
      "cs": 6765,
      "faces": 6766,
      "ho": 6767,
      "yo": 6768,
      "Ð¹": 6769,
      "inner": 6770,
      "omb": 6771,
      "ĠToy": 6772,
      "ĠWal": 6773,
      "ĠGro": 6774,
      "Ġinches": 6775,
      "Ġfinally": 6776,
      "ĠGrade": 6777,
      "Ġedit": 6778,
      "ĠInstall": 6779,
      "Ġclicking": 6780,
      "Ġauthority": 6781,
      "Ġfixed": 6782,
      "'.": 6783,
      "VE": 6784,
      "bb": 6785,
      "Ġsam": 6786,
      "itr": 6787,
      "Ġped": 6788,
      "ĠTen": 6789,
      "ĠCS": 6790,
      "ĠArab": 6791,
      "amet": 6792,
      "ĠRen": 6793,
      "ĠVi": 6794,
      "Ġseamless": 6795,
      "Ġresidents": 6796,
      "Ġsurvey": 6797,
      "poration": 6798,
      "ĠAtl": 6799,
      "Ġappears": 6800,
      "Ġvulner": 6801,
      "HD": 6802,
      "IAN": 6803,
      "gi": 6804,
      "ĠSustain": 6805,
      "ĠPenn": 6806,
      "imize": 6807,
      "Ġexternal": 6808,
      "ĠVin": 6809,
      "Ġadopt": 6810,
      "ORM": 6811,
      "bride": 6812,
      "ĠTopics": 6813,
      "Ġfacilit": 6814,
      "Ġcompetitive": 6815,
      "Ġdomestic": 6816,
      "html": 6817,
      "ĠCut": 6818,
      "ĠMuseum": 6819,
      "ĠBah": 6820,
      "ĠDream": 6821,
      "ĠEth": 6822,
      "oker": 6823,
      "Ġseven": 6824,
      "Ġteaching": 6825,
      "anner": 6826,
      "ICE": 6827,
      "Ġinnovative": 6828,
      "Ġappointment": 6829,
      "sa": 6830,
      "ĠDark": 6831,
      "ĠLord": 6832,
      "Ġexcess": 6833,
      "Ġquarter": 6834,
      "ributes": 6835,
      "Ġ2004": 6836,
      "ĠBeh": 6837,
      "ĠBeads": 6838,
      "Ġvolume": 6839,
      "Ġreasonable": 6840,
      "Ġmanufacturer": 6841,
      "Ġcryptoc": 6842,
      "EP": 6843,
      "RY": 6844,
      "Ġid": 6845,
      "Ġcock": 6846,
      "ĠSO": 6847,
      "aya": 6848,
      "ĠRoyal": 6849,
      "endo": 6850,
      "Ġmode": 6851,
      "Ġavailability": 6852,
      "Ġprogramming": 6853,
      "Ġapproved": 6854,
      "Ġleaders": 6855,
      "Ġlawy": 6856,
      "Ġprocedures": 6857,
      "Ġcorner": 6858,
      "file": 6859,
      "post": 6860,
      "Ïģ": 6861,
      "ÏĦ": 6862,
      "ĠÌ": 6863,
      "rete": 6864,
      "item": 6865,
      "Ġmilk": 6866,
      "ĠMethod": 6867,
      "ĠDry": 6868,
      "ĠGarden": 6869,
      "osc": 6870,
      "ĠInnov": 6871,
      "Ġwasn": 6872,
      "Ġpricing": 6873,
      "ĠSpanish": 6874,
      "Ġelimin": 6875,
      "ĠIntroduction": 6876,
      "Ġcultiv": 6877,
      "Ġclaims": 6878,
      "Ġanalyze": 6879,
      "Ġluxury": 6880,
      "MO": 6881,
      "ras": 6882,
      "rition": 6883,
      "Ġswe": 6884,
      "ĠSwe": 6885,
      "ĠDouble": 6886,
      "imming": 6887,
      "adian": 6888,
      "ĠHun": 6889,
      "oses": 6890,
      "ĠExecutive": 6891,
      "Ġassum": 6892,
      "Ġentreprene": 6893,
      "ASS": 6894,
      "ĠPartners": 6895,
      "ucky": 6896,
      "Ġlashes": 6897,
      "bro": 6898,
      "ixt": 6899,
      "Ġà¸": 6900,
      "Ġtit": 6901,
      "Ġtalent": 6902,
      "Ġaid": 6903,
      "atus": 6904,
      "Ġsdy": 6905,
      "Ġmilitary": 6906,
      "ĠSem": 6907,
      "ĠBB": 6908,
      "idays": 6909,
      "ĠCompl": 6910,
      "ĠMini": 6911,
      "Ġlogin": 6912,
      "icians": 6913,
      "Ġcultural": 6914,
      "criptions": 6915,
      "Ġregulations": 6916,
      "ĠIndustry": 6917,
      "Ġmonitoring": 6918,
      "ï¿½ï¿½": 6919,
      "Ġcircumstances": 6920,
      "MD": 6921,
      "Ġcat": 6922,
      "ĠTE": 6923,
      "ĠTPE": 6924,
      "irms": 6925,
      "Ġalign": 6926,
      "Ġhearing": 6927,
      "Ġ44": 6928,
      "Ġdecide": 6929,
      "ãĥ³": 6930,
      "OUT": 6931,
      "Ġtaxes": 6932,
      "ĠMembership": 6933,
      "BI": 6934,
      "hl": 6935,
      "rance": 6936,
      "iti": 6937,
      "edom": 6938,
      "ĠCT": 6939,
      "Ġeleg": 6940,
      "imonial": 6941,
      "Ġven": 6942,
      "Ġrise": 6943,
      "ĠKar": 6944,
      "ĠChris": 6945,
      "Ġguests": 6946,
      "Ġconfidence": 6947,
      "ĠConditions": 6948,
      "Ġapproximately": 6949,
      "800": 6950,
      "bG": 6951,
      "outer": 6952,
      "oured": 6953,
      "ĠSoc": 6954,
      "ĠAward": 6955,
      "ĠIde": 6956,
      "Ġforget": 6957,
      "Ġseeds": 6958,
      "Ġworldwide": 6959,
      "Ġmedium": 6960,
      "Ġperformed": 6961,
      "ktop": 6962,
      "Home": 6963,
      "how": 6964,
      "hika": 6965,
      "Éĳ": 6966,
      "onent": 6967,
      "ĠSource": 6968,
      "ĠAT": 6969,
      "Ġelement": 6970,
      "Ġstated": 6971,
      "Ġprop": 6972,
      "ĠStory": 6973,
      "oche": 6974,
      "ibrom": 6975,
      "Ġappeal": 6976,
      "Ġintended": 6977,
      "Ġinterface": 6978,
      "Ġagreement": 6979,
      "Ġguy": 6980,
      "Ġbiggest": 6981,
      "Ġcommunications": 6982,
      "ĠLouis": 6983,
      "For": 6984,
      "vc": 6985,
      "yan": 6986,
      "you": 6987,
      "Ġfederal": 6988,
      "ĠSon": 6989,
      "ĠSug": 6990,
      "ĠChen": 6991,
      "elly": 6992,
      "ĠStation": 6993,
      "USD": 6994,
      "Ġimproving": 6995,
      "Ġaudio": 6996,
      "ĠPayment": 6997,
      "Ġspeak": 6998,
      "ĠIndustrial": 6999,
      "====": 7000,
      "Ġpatterns": 7001,
      "war": 7002,
      "á´": 7003,
      "orter": 7004,
      "orough": 7005,
      "ĠSend": 7006,
      "ĠCru": 7007,
      "Ġthick": 7008,
      "ĠPers": 7009,
      "ĠDO": 7010,
      "osen": 7011,
      "ĠKen": 7012,
      "Ġargu": 7013,
      "Ġaccord": 7014,
      "ĠPharm": 7015,
      "ĠNeck": 7016,
      "Ġelectronic": 7017,
      "Ġlaunch": 7018,
      "ĠEconomic": 7019,
      "yalgia": 7020,
      "ÅĤ": 7021,
      "req": 7022,
      "reland": 7023,
      "asp": 7024,
      "ĠCast": 7025,
      "ĠBad": 7026,
      "amps": 7027,
      "cepts": 7028,
      "ĠRadio": 7029,
      "pton": 7030,
      "Ġ400": 7031,
      "ordre": 7032,
      "Ġevol": 7033,
      "athy": 7034,
      "Ġpurchased": 7035,
      "Ġanimal": 7036,
      "Ġtasks": 7037,
      "ibromyalgia": 7038,
      "Be": 7039,
      "BER": 7040,
      "bn": 7041,
      "eff": 7042,
      "fish": 7043,
      "sec": 7044,
      "íķ": 7045,
      "rect": 7046,
      "itz": 7047,
      "Ġwrote": 7048,
      "level": 7049,
      "ĠCro": 7050,
      "igs": 7051,
      "Ġ(\"": 7052,
      "ĠEC": 7053,
      "Ġusage": 7054,
      "orship": 7055,
      "Ġoutput": 7056,
      "ĠYouth": 7057,
      "Ġgetbride": 7058,
      "ĠManager": 7059,
      "ĠTherefore": 7060,
      "Ġorganic": 7061,
      "!!!": 7062,
      "Ġepisode": 7063,
      "ĠConstruction": 7064,
      "Ġrestaurants": 7065,
      "Ġatmosphere": 7066,
      "All": 7067,
      "Us": 7068,
      "iors": 7069,
      "wg": 7070,
      "inations": 7071,
      "isms": 7072,
      "ĠCards": 7073,
      "ĠPacific": 7074,
      "ĠFall": 7075,
      "ĠLux": 7076,
      "ensity": 7077,
      "ERV": 7078,
      "Ġrepro": 7079,
      "Ġphp": 7080,
      "Ġchoosing": 7081,
      "Ġsupports": 7082,
      "Ġstatements": 7083,
      "ĠOutdoor": 7084,
      "Ġstructural": 7085,
      "ĠPrograms": 7086,
      "Ġgenetic": 7087,
      "ĠFilter": 7088,
      "Ġevaluation": 7089,
      "ĠMaterials": 7090,
      "can": 7091,
      "xi": 7092,
      "arrow": 7093,
      "ĠPill": 7094,
      "Ġlabel": 7095,
      "ĠDam": 7096,
      "aki": 7097,
      "ounsel": 7098,
      "Ġperman": 7099,
      "Ġserves": 7100,
      "Ġlooked": 7101,
      "ĠFront": 7102,
      "Ġinfrast": 7103,
      "Ġcorporate": 7104,
      "ĠSubmit": 7105,
      "ĠWorking": 7106,
      "Ġwinter": 7107,
      "Ġcombined": 7108,
      "Ġportfolio": 7109,
      "ĠKingdom": 7110,
      "Ġliners": 7111,
      "Ġcollaboration": 7112,
      "Ġmats": 7113,
      "idance": 7114,
      "ĠDays": 7115,
      "ĠHold": 7116,
      "ĠGlo": 7117,
      "Ġjack": 7118,
      "Ġdifferences": 7119,
      "à¥ĩ": 7120,
      "Ġwheel": 7121,
      "Ġidentity": 7122,
      "bec": 7123,
      "kins": 7124,
      "vest": 7125,
      "Ġcup": 7126,
      "Ġcities": 7127,
      "Ġpandemic": 7128,
      "Ġfilled": 7129,
      "ĠTimes": 7130,
      "Ġhop": 7131,
      "Ġgambling": 7132,
      "ĠRO": 7133,
      "ĠHi": 7134,
      "Ġ(+": 7135,
      "illo": 7136,
      "Ġwhatever": 7137,
      "ĠStick": 7138,
      "Ġshot": 7139,
      "rent": 7140,
      "ĠScot": 7141,
      "Ġstructures": 7142,
      "Ġmajority": 7143,
      "Ġmatches": 7144,
      "Ġfootball": 7145,
      "Ġannounce": 7146,
      "Ġreplacement": 7147,
      "ĠDocument": 7148,
      "bob": 7149,
      "iar": 7150,
      "Ġtried": 7151,
      "arp": 7152,
      "ĠRose": 7153,
      "ĠLat": 7154,
      "ĠIntegr": 7155,
      "Ġspect": 7156,
      "Ġjoy": 7157,
      "argo": 7158,
      "spec": 7159,
      "Ġmonthly": 7160,
      "ĠTransport": 7161,
      "ĠTechnical": 7162,
      "Ġconsumption": 7163,
      "Ġregularly": 7164,
      "ĠCookies": 7165,
      "Ġcrypto": 7166,
      "ĠVirginia": 7167,
      "Ġpizza": 7168,
      "Ġthr": 7169,
      "ĠRent": 7170,
      "ĠLLC": 7171,
      "ĠOwn": 7172,
      "bert": 7173,
      "Ġhighlight": 7174,
      "ĠIndex": 7175,
      "Ġsurpr": 7176,
      "Ġfamous": 7177,
      "Ġconnections": 7178,
      "IHR": 7179,
      "âĤ¬": 7180,
      "He": 7181,
      "MB": 7182,
      "husi": 7183,
      "sf": 7184,
      "worth": 7185,
      "including": 7186,
      "Ġanti": 7187,
      "ione": 7188,
      "Ġrevenue": 7189,
      "oto": 7190,
      "charge": 7191,
      "ĠGE": 7192,
      "ĠVision": 7193,
      "Ġdeals": 7194,
      "Ġspaces": 7195,
      "inding": 7196,
      "Ġclosed": 7197,
      "Ġtruth": 7198,
      "Ġ76": 7199,
      "azz": 7200,
      "ĠRegistration": 7201,
      "ĠConsult": 7202,
      "Ġlayer": 7203,
      "Ġfailure": 7204,
      "embly": 7205,
      "ĠDaniel": 7206,
      "Ġestimated": 7207,
      "De": 7208,
      "eared": 7209,
      "lie": 7210,
      "Ġacknow": 7211,
      "Ġfigure": 7212,
      "ĠSide": 7213,
      "Ġhook": 7214,
      "ĠIreland": 7215,
      "Ġnecess": 7216,
      "ĠRight": 7217,
      "Ġstreet": 7218,
      "raul": 7219,
      "osit": 7220,
      "Ġconcent": 7221,
      "Ġexec": 7222,
      "ĠUk": 7223,
      "ificial": 7224,
      "Ġartists": 7225,
      "Ġkeyword": 7226,
      "Ġseeking": 7227,
      "Ġappreciate": 7228,
      "ĠETF": 7229,
      "AZ": 7230,
      "PM": 7231,
      "bet": 7232,
      "ĠSection": 7233,
      "ĠCore": 7234,
      "ĠWinter": 7235,
      "ĠNE": 7236,
      "ĠKit": 7237,
      "ĠChic": 7238,
      "Ġmanager": 7239,
      "afe": 7240,
      "AME": 7241,
      "IGF": 7242,
      "Ġexplain": 7243,
      "Ġstores": 7244,
      "ĠRemove": 7245,
      "ĠSteve": 7246,
      "Ġdiscussion": 7247,
      "ĠDiscuss": 7248,
      "ĠDomino": 7249,
      "Ġdogs": 7250,
      "ycling": 7251,
      "ĠFrancisco": 7252,
      "DR": 7253,
      "VM": 7254,
      "making": 7255,
      "Ġmit": 7256,
      "Ġmort": 7257,
      "entures": 7258,
      "ĠPen": 7259,
      "berry": 7260,
      "ferences": 7261,
      "ĠReplies": 7262,
      "ĠComment": 7263,
      "ĠSuite": 7264,
      "ĠUpd": 7265,
      "ĠUpdate": 7266,
      "black": 7267,
      "Ġjournal": 7268,
      "Ġupload": 7269,
      "Ġsubscrib": 7270,
      "ĠMessage": 7271,
      "ĠChampions": 7272,
      "GR": 7273,
      "upp": 7274,
      "Ã±": 7275,
      "ether": 7276,
      "ĠDie": 7277,
      "ĠWE": 7278,
      "agen": 7279,
      "006": 7280,
      "Ġvibr": 7281,
      "uster": 7282,
      "Ġshipped": 7283,
      "cles": 7284,
      "orders": 7285,
      "Ġdesire": 7286,
      "Ġamb": 7287,
      "Ġenthusi": 7288,
      "Ġfinance": 7289,
      "intage": 7290,
      "Ġfollows": 7291,
      "Ġeditor": 7292,
      "Ġtaste": 7293,
      "ali": 7294,
      "Ġflo": 7295,
      "Ġtot": 7296,
      "Ġdie": 7297,
      "ĠTam": 7298,
      "ĠBrowse": 7299,
      "Ġnorm": 7300,
      "ĠLiving": 7301,
      "ĠOak": 7302,
      "emporary": 7303,
      "Ġcompat": 7304,
      "ĠPlatform": 7305,
      "Ġbrud": 7306,
      "Ġprocessed": 7307,
      "Ġaccessories": 7308,
      "ĠOfficial": 7309,
      "Ġphotograph": 7310,
      "Ġmarked": 7311,
      "Ġparticipants": 7312,
      "Ġexhibition": 7313,
      "Al": 7314,
      "Con": 7315,
      "coh": 7316,
      "iest": 7317,
      "owing": 7318,
      "Ġstunning": 7319,
      "Ġvan": 7320,
      "Ġanywhere": 7321,
      "ĠComb": 7322,
      "Ġhandling": 7323,
      "oots": 7324,
      "Ġlegit": 7325,
      "Ġmembership": 7326,
      "ĠInterest": 7327,
      "ĠDiscover": 7328,
      "Ġdetermined": 7329,
      "Ġemergency": 7330,
      "ĠIdent": 7331,
      "Ġrapid": 7332,
      "rick": 7333,
      "Ġagricult": 7334,
      "Ġdang": 7335,
      "ĠTOP": 7336,
      "ĠPAR": 7337,
      "ims": 7338,
      "ĠJones": 7339,
      "pty": 7340,
      "ĠKong": 7341,
      "à¤¯": 7342,
      "\":{": 7343,
      "Ġgenerations": 7344,
      "Ġrequests": 7345,
      "ĠProfile": 7346,
      "Ġsufficient": 7347,
      "No": 7348,
      "kin": 7349,
      "rink": 7350,
      "Ġfest": 7351,
      "Ġfalse": 7352,
      "ĠBoth": 7353,
      "ĠDoll": 7354,
      "ĠLuc": 7355,
      "ĠVery": 7356,
      "udden": 7357,
      "comp": 7358,
      "Ġagre": 7359,
      "ENG": 7360,
      "ĠConc": 7361,
      "Ġbelong": 7362,
      "Ġsigned": 7363,
      "Ġii": 7364,
      "Ġdistance": 7365,
      "Ġbuildings": 7366,
      "ĠDelhi": 7367,
      "Ġswitch": 7368,
      "ĠTesting": 7369,
      "Ġexamples": 7370,
      "Ġsymptoms": 7371,
      "ĠCreative": 7372,
      "raulic": 7373,
      "My": 7374,
      "town": 7375,
      "Ġcabin": 7376,
      "Ġbanks": 7377,
      "ĠBarn": 7378,
      "ĠHyd": 7379,
      "Ġbeg": 7380,
      "aka": 7381,
      "ainless": 7382,
      "Ġenables": 7383,
      "ĠChange": 7384,
      "phas": 7385,
      "Ġbrid": 7386,
      "ugs": 7387,
      "Ġ2002": 7388,
      "Ġseeing": 7389,
      "Ġdevelopers": 7390,
      "ĠAppro": 7391,
      "IGHT": 7392,
      "ĠSecret": 7393,
      "Ġmoved": 7394,
      "Ġinvolves": 7395,
      "Ġcriteria": 7396,
      "Ġpollen": 7397,
      "ĠProfessor": 7398,
      "ĠSchedule": 7399,
      "Rec": 7400,
      "gers": 7401,
      "enz": 7402,
      "ĠWine": 7403,
      "ĠLength": 7404,
      "Ġstation": 7405,
      "Ġadult": 7406,
      "Ġjo": 7407,
      "ERE": 7408,
      "Ġtechnique": 7409,
      "Ġdepartment": 7410,
      "Ġnetworks": 7411,
      "Ġfitness": 7412,
      "Ġmissing": 7413,
      "orgeous": 7414,
      "Ġprocedure": 7415,
      "AI": 7416,
      "Rl": 7417,
      "bour": 7418,
      "kvin": 7419,
      "æĺ": 7420,
      "Ġpump": 7421,
      "state": 7422,
      "Ġ39": 7423,
      "Ġleaving": 7424,
      "Ġplays": 7425,
      "irement": 7426,
      "ensed": 7427,
      "Ġserving": 7428,
      "Ġflower": 7429,
      "ĠSwitch": 7430,
      "Ġmaintaining": 7431,
      "Ġprepare": 7432,
      "Ġcategories": 7433,
      "Col": 7434,
      "Reg": 7435,
      "era": 7436,
      "aron": 7437,
      "Ġfig": 7438,
      "Ġfaith": 7439,
      "Ġbrief": 7440,
      "user": 7441,
      "ounce": 7442,
      "Ġride": 7443,
      "Ġkid": 7444,
      "Ġenabled": 7445,
      "Ġ46": 7446,
      "Ġquote": 7447,
      "à¤¨": 7448,
      "Ġextent": 7449,
      "pring": 7450,
      "URE": 7451,
      "Ġobvious": 7452,
      "Ġrecorded": 7453,
      "Ġvehicles": 7454,
      "ĠDemocr": 7455,
      "ĠJeff": 7456,
      "ĠMartin": 7457,
      "onymous": 7458,
      "Ġaccordance": 7459,
      "wa": 7460,
      "Ġdriver": 7461,
      "ĠRam": 7462,
      "ĠLA": 7463,
      "rais": 7464,
      "Ġju": 7465,
      "ĠLee": 7466,
      "Ġexpression": 7467,
      "Ġ125": 7468,
      "Ġartwork": 7469,
      "Ġleadership": 7470,
      "Ġcertified": 7471,
      "ĠParis": 7472,
      "Ġhardware": 7473,
      "Ġpositions": 7474,
      "fortunately": 7475,
      "Ġconsumers": 7476,
      "ĠJackets": 7477,
      "Ġobserved": 7478,
      "Ġmerch": 7479,
      "FA": 7480,
      "rate": 7481,
      "åĬ": 7482,
      "Ġë": 7483,
      "Ġbow": 7484,
      "Ġmoist": 7485,
      "omy": 7486,
      "ĠTaylor": 7487,
      "Ġlibrary": 7488,
      "Ġegg": 7489,
      "igion": 7490,
      "Ġconference": 7491,
      "Ġrub": 7492,
      "Ġ55": 7493,
      "lict": 7494,
      "Ġ800": 7495,
      "Ġattach": 7496,
      "ĠPoster": 7497,
      "Ġbathroom": 7498,
      "Ġawesome": 7499,
      "ĠJoseph": 7500,
      "ĠHappy": 7501,
      "Ġtight": 7502,
      "ĠCB": 7503,
      "ĠCy": 7504,
      "Ġhidden": 7505,
      "ĠMoney": 7506,
      "iminal": 7507,
      "ĠHong": 7508,
      "unched": 7509,
      "ĠJon": 7510,
      "ĠStay": 7511,
      "enders": 7512,
      "Ġplenty": 7513,
      "ocks": 7514,
      "Ġproductivity": 7515,
      "ALE": 7516,
      "Ġcoffee": 7517,
      "Ġhybrid": 7518,
      "Ġaccuracy": 7519,
      "If": 7520,
      "Ms": 7521,
      "uan": 7522,
      "Ð´": 7523,
      "åľ": 7524,
      "Ġsouth": 7525,
      "Ġcrow": 7526,
      "ĠSong": 7527,
      "ela": 7528,
      "ĠMAR": 7529,
      "ĠBR": 7530,
      "Ġelev": 7531,
      "Ġord": 7532,
      "ĠStone": 7533,
      "Ġexpensive": 7534,
      "Ġfamiliar": 7535,
      "Ġleader": 7536,
      "ĠTrack": 7537,
      "Ġoccup": 7538,
      "ĠModern": 7539,
      "Ġholds": 7540,
      "ĠGolden": 7541,
      "Ġmanufacturing": 7542,
      "Ġassessment": 7543,
      "How": 7544,
      "then": 7545,
      "vi": 7546,
      "ĠSnow": 7547,
      "ĠCrit": 7548,
      "oli": 7549,
      "Ġbeach": 7550,
      "Ġconsequ": 7551,
      "ĠChief": 7552,
      "Ġ64": 7553,
      "Ġraces": 7554,
      "ĠApply": 7555,
      "ĠQuote": 7556,
      "Ġdepth": 7557,
      "Ġinfrastructure": 7558,
      "250": 7559,
      "fg": 7560,
      "åº": 7561,
      "Ġnative": 7562,
      "Ġonto": 7563,
      "ĠHospital": 7564,
      "abling": 7565,
      "Ġ65": 7566,
      "ĠScreen": 7567,
      "Ġcoast": 7568,
      "Ġhappened": 7569,
      "ĠCapital": 7570,
      "Ġencourage": 7571,
      "Phone": 7572,
      "ĠEssential": 7573,
      "DO": 7574,
      "DER": 7575,
      "MM": 7576,
      "orry": 7577,
      "Ġcamera": 7578,
      "Ġwitness": 7579,
      "Ġfuel": 7580,
      "ĠTick": 7581,
      "Ġreduced": 7582,
      "ĠFord": 7583,
      "ĠHen": 7584,
      "utch": 7585,
      "ĠLarge": 7586,
      "ĠEver": 7587,
      "ĠGR": 7588,
      "Ġrandom": 7589,
      "ĠThree": 7590,
      "ĠShopping": 7591,
      "away": 7592,
      "ĠColumb": 7593,
      "Ġrequirement": 7594,
      "Ġbrew": 7595,
      "Ġpolice": 7596,
      "AGE": 7597,
      "Ġstarts": 7598,
      "ĠExplore": 7599,
      "Ġsustainable": 7600,
      "æĪ": 7601,
      "idth": 7602,
      "ushed": 7603,
      "ĠFant": 7604,
      "ĠLess": 7605,
      "ĠNic": 7606,
      "ĠNash": 7607,
      "tery": 7608,
      "endant": 7609,
      "ĠKh": 7610,
      "ocon": 7611,
      "arehouse": 7612,
      "aping": 7613,
      "Ġadults": 7614,
      "ensation": 7615,
      "Ġbetting": 7616,
      "ĠOrders": 7617,
      "ĠUsers": 7618,
      "ĠCanadian": 7619,
      "doi": 7620,
      "ĠConsider": 7621,
      "Ġchallenging": 7622,
      "ĠPressure": 7623,
      "Ġflexible": 7624,
      "Se": 7625,
      "cn": 7626,
      "cal": 7627,
      "ĠTurn": 7628,
      "ĠBirth": 7629,
      "cho": 7630,
      "ĠElementary": 7631,
      "Ġradi": 7632,
      "Ġsuit": 7633,
      "Ġkm": 7634,
      "Ġ73": 7635,
      "ĠSpot": 7636,
      "Ġknew": 7637,
      "Ġinstitutions": 7638,
      "Ġsheet": 7639,
      "Ġanalytics": 7640,
      "ADA": 7641,
      "Ġpurchasing": 7642,
      "ĠActive": 7643,
      "Ġresulting": 7644,
      "Ġqualified": 7645,
      "[]": 7646,
      "night": 7647,
      "oz": 7648,
      "Ġcro": 7649,
      "ĠPurch": 7650,
      "Ġreached": 7651,
      "ĠBache": 7652,
      "image": 7653,
      "ĠJob": 7654,
      "Ġscr": 7655,
      "Ġscript": 7656,
      "Ġ99": 7657,
      "Ġroot": 7658,
      "Ġsolo": 7659,
      "Ġhyper": 7660,
      "ĠAdvis": 7661,
      "ĠPortug": 7662,
      "ameras": 7663,
      "Ġmotor": 7664,
      "ĠIssue": 7665,
      "uminum": 7666,
      "ĠBenefits": 7667,
      "bobet": 7668,
      "Ab": 7669,
      "Ġpor": 7670,
      "ĠPict": 7671,
      "Ġreducing": 7672,
      "amental": 7673,
      "ĠHu": 7674,
      "Ġstrict": 7675,
      "Ġproof": 7676,
      "ouses": 7677,
      "ĠBlu": 7678,
      ".,'": 7679,
      "Ġrooms": 7680,
      "Ġconvenience": 7681,
      "allel": 7682,
      "Tech": 7683,
      "Ġexceptional": 7684,
      "Ġlandscape": 7685,
      "Ã¸": 7686,
      "è¿": 7687,
      "Ġbrown": 7688,
      "ĠAst": 7689,
      "ĠPoint": 7690,
      "Ġ-----------------": 7691,
      "ĠHon": 7692,
      "ĠLis": 7693,
      "aped": 7694,
      "ibilities": 7695,
      "Ġ//": 7696,
      "Ġcream": 7697,
      "ACH": 7698,
      "ĠINF": 7699,
      "ĠClasses": 7700,
      "OWER": 7701,
      "ĠMagazine": 7702,
      "ĠMulti": 7703,
      "Ġresistance": 7704,
      "ĠTreatment": 7705,
      "Ġeligible": 7706,
      "EUR": 7707,
      "KS": 7708,
      "Nl": 7709,
      "pir": 7710,
      "Ġign": 7711,
      "ĠDub": 7712,
      "ĠDIS": 7713,
      "erse": 7714,
      "osite": 7715,
      "ectors": 7716,
      "ansas": 7717,
      "Ġscene": 7718,
      "Ġpostordre": 7719,
      "Ġcouldn": 7720,
      "ĠAmateur": 7721,
      "ĠAgreement": 7722,
      "interest": 7723,
      "ĠSupplies": 7724,
      "Ġpleasure": 7725,
      "Ġsongs": 7726,
      "nic": 7727,
      "tem": 7728,
      "vy": 7729,
      "inne": 7730,
      "Ġborder": 7731,
      "ĠPed": 7732,
      "ĠDat": 7733,
      "ĠFar": 7734,
      "Ġbeat": 7735,
      "ĠLatin": 7736,
      "ĠTherap": 7737,
      "inds": 7738,
      "Ġclinical": 7739,
      "Ġgrad": 7740,
      "Ġmodified": 7741,
      "Ġsecret": 7742,
      "ronics": 7743,
      "Ġequal": 7744,
      "Ġcentre": 7745,
      "ennis": 7746,
      "liers": 7747,
      "ĠCleaning": 7748,
      "400": 7749,
      "pub": 7750,
      "ĠÙ": 7751,
      "Ġice": 7752,
      "ĠSy": 7753,
      "ĠPut": 7754,
      "ĠMix": 7755,
      "ĠRib": 7756,
      "Ġster": 7757,
      "ĠGifts": 7758,
      "osa": 7759,
      "osm": 7760,
      "ĠJac": 7761,
      "ĠSpirit": 7762,
      "à¤®": 7763,
      "ĠSea": 7764,
      "ĠPrime": 7765,
      "Ġauto": 7766,
      "ĠAssess": 7767,
      "Ġconsidering": 7768,
      "Ġruns": 7769,
      "ĠWorkshop": 7770,
      "Ð¾Ð²": 7771,
      "ĠAudio": 7772,
      "Ġhorse": 7773,
      "Ġfantastic": 7774,
      "Ġacademic": 7775,
      "HC": 7776,
      "bur": 7777,
      "function": 7778,
      "ĠSus": 7779,
      "ĠCN": 7780,
      "Ġyellow": 7781,
      "ĠBoy": 7782,
      "ĠFinal": 7783,
      "ĠRange": 7784,
      "Ġbear": 7785,
      "ĠOd": 7786,
      "Ġsport": 7787,
      "ervice": 7788,
      "tters": 7789,
      "ĠDeal": 7790,
      "Ġexpenses": 7791,
      "Ġcalling": 7792,
      "proof": 7793,
      "ĠEditor": 7794,
      "Ġpackaging": 7795,
      "olec": 7796,
      "ĠGeorg": 7797,
      "Ġanswers": 7798,
      "ECTION": 7799,
      "Ġconversation": 7800,
      "Ġcitizens": 7801,
      "CS": 7802,
      "UK": 7803,
      "pret": 7804,
      "iner": 7805,
      "Ġdial": 7806,
      "ilation": 7807,
      "road": 7808,
      "ĠBased": 7809,
      "ĠFour": 7810,
      "urities": 7811,
      "ikes": 7812,
      "ĠUnivers": 7813,
      "Ġgrade": 7814,
      "ĠAndrew": 7815,
      "ĠIsl": 7816,
      "Ġlegis": 7817,
      "Ġdiseases": 7818,
      "content": 7819,
      "Ġcopyright": 7820,
      "Ġhistorical": 7821,
      "ĠPremium": 7822,
      "PG": 7823,
      "sis": 7824,
      "Ġdaughter": 7825,
      "Ġthorough": 7826,
      "ĠPin": 7827,
      "Ġease": 7828,
      "Ġwithdraw": 7829,
      "Ġcontribute": 7830,
      "2021": 7831,
      "phones": 7832,
      "ĠEnjoy": 7833,
      "ĠÐ½": 7834,
      "ĠÐ¿": 7835,
      "ĠHealthcare": 7836,
      "Ġwinning": 7837,
      "Ġembed": 7838,
      "ĠExpress": 7839,
      "Ġintroduced": 7840,
      "ĠOriginal": 7841,
      "QL": 7842,
      "atile": 7843,
      "aturing": 7844,
      "isition": 7845,
      "Ġdram": 7846,
      "ilst": 7847,
      "ĠML": 7848,
      "Ġgutter": 7849,
      "ĠDNA": 7850,
      "igan": 7851,
      "ĠLib": 7852,
      "irty": 7853,
      "ĠJoe": 7854,
      "Ġspring": 7855,
      "Ġjoint": 7856,
      "2013": 7857,
      "Ġemails": 7858,
      "erman": 7859,
      "Ġknows": 7860,
      "enger": 7861,
      "à¸²": 7862,
      "merican": 7863,
      "ĠRecent": 7864,
      "Ġsquare": 7865,
      "\"},\"": 7866,
      "As": 7867,
      "ipt": 7868,
      "ÏĤ": 7869,
      "Ġfish": 7870,
      "ician": 7871,
      "Ġdim": 7872,
      "Ġdivid": 7873,
      "ĠBh": 7874,
      "ĠBag": 7875,
      "Ġgone": 7876,
      "Ġfort": 7877,
      "ĠRod": 7878,
      "umes": 7879,
      "ĠStories": 7880,
      "Ġfrag": 7881,
      "Ġcapabilities": 7882,
      "ĠArtist": 7883,
      "flow": 7884,
      "Ġsuccessfully": 7885,
      "ä¸Ń": 7886,
      "Ġintegration": 7887,
      "ĠVolume": 7888,
      "borhood": 7889,
      "Ġfertil": 7890,
      "Ġmillions": 7891,
      "Ġwedding": 7892,
      "Gr": 7893,
      "dis": 7894,
      "writ": 7895,
      "ĠÄ": 7896,
      "icate": 7897,
      "ami": 7898,
      "iments": 7899,
      "ĠRay": 7900,
      "ĠRub": 7901,
      "Ġweak": 7902,
      "Ġdeploy": 7903,
      "Ġspons": 7904,
      "Ġemphas": 7905,
      "Ġ88": 7906,
      "Ġcommand": 7907,
      "Ġattorney": 7908,
      "Ġgreatest": 7909,
      "ICK": 7910,
      "Ġdepends": 7911,
      "ĠEliz": 7912,
      "ĠJohnson": 7913,
      "ĠAnnual": 7914,
      "ĠEconomics": 7915,
      "RP": 7916,
      "Rp": 7917,
      "gets": 7918,
      "law": 7919,
      "Ġcovers": 7920,
      "Ġcycle": 7921,
      "Ġfly": 7922,
      "Ġburn": 7923,
      "Ġmir": 7924,
      "Ġmouth": 7925,
      "idi": 7926,
      "ĠFix": 7927,
      "istent": 7928,
      "Ġdebt": 7929,
      "plarium": 7930,
      "Ġagencies": 7931,
      "ĠContract": 7932,
      "Ġinvent": 7933,
      "Ġlisten": 7934,
      "ĠImport": 7935,
      "version": 7936,
      "Ġaddresses": 7937,
      "ĠAPI": 7938,
      "ĠQueen": 7939,
      "NQ": 7940,
      "case": 7941,
      "Ġsnow": 7942,
      "Ġpal": 7943,
      "Ġpure": 7944,
      "ĠAV": 7945,
      "ĠME": 7946,
      "ĠFitness": 7947,
      "ĠGel": 7948,
      "ĠThird": 7949,
      "Ġ74": 7950,
      "Ġ77": 7951,
      "Ġ2001": 7952,
      "Ġshowed": 7953,
      "Ġconstruct": 7954,
      "ĠMonitor": 7955,
      "Ġboat": 7956,
      "********": 7957,
      "Ġnegative": 7958,
      "build": 7959,
      "ĠAdministration": 7960,
      "ĠNashville": 7961,
      "))": 7962,
      "??": 7963,
      "cp": 7964,
      "font": 7965,
      "rs": 7966,
      "uce": 7967,
      "onder": 7968,
      "hetic": 7969,
      "ĠSD": 7970,
      "ĠMB": 7971,
      "chicken": 7972,
      "ĠDental": 7973,
      "lywood": 7974,
      "Ġuniversity": 7975,
      "2012": 7976,
      "ĠArm": 7977,
      "Ġdecades": 7978,
      "ĠTrad": 7979,
      "Ġended": 7980,
      "rolog": 7981,
      "IGN": 7982,
      "ĠNotes": 7983,
      "paration": 7984,
      "Ġdomin": 7985,
      "ĠSenior": 7986,
      "Ġemotional": 7987,
      "fire": 7988,
      "job": 7989,
      "lights": 7990,
      "uum": 7991,
      "Ġsan": 7992,
      "Ġsides": 7993,
      "ĠTel": 7994,
      "ĠTag": 7995,
      "etary": 7996,
      "Ġlift": 7997,
      "ĠDyn": 7998,
      "ĠVirtual": 7999
    },
    "merges": [
      [
        "Ġ",
        "t"
      ],
      [
        "Ġ",
        "a"
      ],
      [
        "i",
        "n"
      ],
      [
        "e",
        "r"
      ],
      [
        "o",
        "n"
      ],
      [
        "h",
        "e"
      ],
      [
        "r",
        "e"
      ],
      [
        "o",
        "r"
      ],
      [
        "a",
        "t"
      ],
      [
        "Ġ",
        "s"
      ],
      [
        "e",
        "s"
      ],
      [
        "e",
        "n"
      ],
      [
        "Ġt",
        "he"
      ],
      [
        "a",
        "n"
      ],
      [
        "o",
        "u"
      ],
      [
        "i",
        "t"
      ],
      [
        "Ġ",
        "c"
      ],
      [
        "Ġ",
        "w"
      ],
      [
        "i",
        "s"
      ],
      [
        "a",
        "l"
      ],
      [
        "in",
        "g"
      ],
      [
        "Ġ",
        "p"
      ],
      [
        "a",
        "r"
      ],
      [
        "Ġ",
        "f"
      ],
      [
        "Ġa",
        "n"
      ],
      [
        "Ġ",
        "o"
      ],
      [
        "e",
        "d"
      ],
      [
        "Ġ",
        "b"
      ],
      [
        "i",
        "c"
      ],
      [
        "Ġt",
        "o"
      ],
      [
        "Ġ",
        "m"
      ],
      [
        "i",
        "on"
      ],
      [
        "Ġan",
        "d"
      ],
      [
        "Ġ",
        "in"
      ],
      [
        "l",
        "e"
      ],
      [
        "Ġ",
        "S"
      ],
      [
        "Ġo",
        "f"
      ],
      [
        "o",
        "m"
      ],
      [
        "Ġ",
        "d"
      ],
      [
        "a",
        "s"
      ],
      [
        "Ġ",
        "T"
      ],
      [
        "Ġ",
        "C"
      ],
      [
        "Ġ",
        "A"
      ],
      [
        "en",
        "t"
      ],
      [
        "i",
        "l"
      ],
      [
        "Ġ",
        "h"
      ],
      [
        "r",
        "o"
      ],
      [
        "c",
        "t"
      ],
      [
        "Ġt",
        "h"
      ],
      [
        "s",
        "t"
      ],
      [
        "Ġ",
        "P"
      ],
      [
        "e",
        "l"
      ],
      [
        "e",
        "t"
      ],
      [
        "Ġ",
        "y"
      ],
      [
        "Ġ",
        "I"
      ],
      [
        "Ġ",
        "-"
      ],
      [
        "Ġ",
        "re"
      ],
      [
        "Ġ",
        "M"
      ],
      [
        "Ġ",
        "l"
      ],
      [
        "Ġy",
        "ou"
      ],
      [
        "Ġ",
        "B"
      ],
      [
        "Ġ",
        "e"
      ],
      [
        "Ġ",
        "n"
      ],
      [
        "o",
        "l"
      ],
      [
        "v",
        "e"
      ],
      [
        "i",
        "d"
      ],
      [
        "o",
        "t"
      ],
      [
        "c",
        "h"
      ],
      [
        "u",
        "s"
      ],
      [
        "Ġ",
        "g"
      ],
      [
        "at",
        "ion"
      ],
      [
        "Ġ",
        "D"
      ],
      [
        "a",
        "m"
      ],
      [
        "o",
        "w"
      ],
      [
        "Ġf",
        "or"
      ],
      [
        "c",
        "e"
      ],
      [
        "i",
        "g"
      ],
      [
        "Ġ",
        "W"
      ],
      [
        "er",
        "s"
      ],
      [
        "Ġ",
        "F"
      ],
      [
        "Ġ",
        "is"
      ],
      [
        "a",
        "y"
      ],
      [
        "Ġ",
        "1"
      ],
      [
        "i",
        "m"
      ],
      [
        "Ġ",
        "R"
      ],
      [
        "u",
        "r"
      ],
      [
        "Ġ",
        "on"
      ],
      [
        "l",
        "y"
      ],
      [
        "a",
        "d"
      ],
      [
        "Ġ",
        "H"
      ],
      [
        "Ġ",
        "("
      ],
      [
        "Ġ",
        "2"
      ],
      [
        "u",
        "t"
      ],
      [
        "Ġb",
        "e"
      ],
      [
        "u",
        "n"
      ],
      [
        "it",
        "h"
      ],
      [
        "Ġ",
        "L"
      ],
      [
        "t",
        "h"
      ],
      [
        "i",
        "r"
      ],
      [
        "Ġ",
        "E"
      ],
      [
        "u",
        "l"
      ],
      [
        "v",
        "er"
      ],
      [
        "a",
        "g"
      ],
      [
        "Ġs",
        "t"
      ],
      [
        "Ġw",
        "ith"
      ],
      [
        "Ġ",
        "G"
      ],
      [
        "Ġ",
        "N"
      ],
      [
        "t",
        "er"
      ],
      [
        "Ġth",
        "at"
      ],
      [
        "r",
        "a"
      ],
      [
        "Ġp",
        "ro"
      ],
      [
        "Ġ",
        "O"
      ],
      [
        "e",
        "m"
      ],
      [
        "i",
        "f"
      ],
      [
        "es",
        "s"
      ],
      [
        "a",
        "b"
      ],
      [
        "o",
        "s"
      ],
      [
        "Ġ",
        "or"
      ],
      [
        "es",
        "t"
      ],
      [
        "p",
        "p"
      ],
      [
        "ou",
        "r"
      ],
      [
        "o",
        "d"
      ],
      [
        "c",
        "k"
      ],
      [
        "il",
        "l"
      ],
      [
        "Ġ",
        "it"
      ],
      [
        "Ġc",
        "on"
      ],
      [
        "Ġa",
        "l"
      ],
      [
        "at",
        "e"
      ],
      [
        "ĠT",
        "he"
      ],
      [
        "r",
        "i"
      ],
      [
        "Ġa",
        "re"
      ],
      [
        "0",
        "0"
      ],
      [
        "Ġa",
        "s"
      ],
      [
        "Ġyou",
        "r"
      ],
      [
        "an",
        "d"
      ],
      [
        "m",
        "ent"
      ],
      [
        "Ġw",
        "h"
      ],
      [
        "t",
        "s"
      ],
      [
        "Ġ",
        "v"
      ],
      [
        "i",
        "es"
      ],
      [
        "e",
        "w"
      ],
      [
        "o",
        "re"
      ],
      [
        "it",
        "y"
      ],
      [
        "q",
        "u"
      ],
      [
        "a",
        "k"
      ],
      [
        "Ġc",
        "om"
      ],
      [
        "u",
        "m"
      ],
      [
        ".",
        "."
      ],
      [
        "'",
        "s"
      ],
      [
        "u",
        "re"
      ],
      [
        "o",
        "p"
      ],
      [
        "e",
        "c"
      ],
      [
        "e",
        "ct"
      ],
      [
        "ig",
        "h"
      ],
      [
        "is",
        "t"
      ],
      [
        "ĠI",
        "n"
      ],
      [
        "Ġe",
        "x"
      ],
      [
        "ou",
        "t"
      ],
      [
        "r",
        "om"
      ],
      [
        "i",
        "v"
      ],
      [
        "ou",
        "n"
      ],
      [
        "Ġ",
        "J"
      ],
      [
        "Ġw",
        "e"
      ],
      [
        "er",
        "e"
      ],
      [
        "s",
        "e"
      ],
      [
        "ar",
        "t"
      ],
      [
        "Ġ",
        "us"
      ],
      [
        "Ġ2",
        "0"
      ],
      [
        "Ġa",
        "t"
      ],
      [
        "u",
        "st"
      ],
      [
        "Ġ",
        "U"
      ],
      [
        "i",
        "ve"
      ],
      [
        "Ġh",
        "a"
      ],
      [
        "a",
        "in"
      ],
      [
        "or",
        "t"
      ],
      [
        "Ġc",
        "an"
      ],
      [
        "ar",
        "d"
      ],
      [
        "Ġb",
        "y"
      ],
      [
        "an",
        "t"
      ],
      [
        "Ġ",
        "V"
      ],
      [
        "Ġ",
        "he"
      ],
      [
        "al",
        "l"
      ],
      [
        "re",
        "s"
      ],
      [
        "o",
        "g"
      ],
      [
        "i",
        "al"
      ],
      [
        "o",
        "st"
      ],
      [
        "l",
        "d"
      ],
      [
        "p",
        "t"
      ],
      [
        "u",
        "d"
      ],
      [
        "e",
        "ar"
      ],
      [
        "Ġ",
        "r"
      ],
      [
        "in",
        "e"
      ],
      [
        "Ġf",
        "rom"
      ],
      [
        "ĠS",
        "t"
      ],
      [
        "en",
        "d"
      ],
      [
        "Ġs",
        "u"
      ],
      [
        "Ġs",
        "h"
      ],
      [
        "Ġd",
        "e"
      ],
      [
        "o",
        "k"
      ],
      [
        "Ġc",
        "h"
      ],
      [
        "Ġth",
        "is"
      ],
      [
        "ĠT",
        "h"
      ],
      [
        "Ġ",
        "K"
      ],
      [
        "o",
        "c"
      ],
      [
        "ic",
        "e"
      ],
      [
        "Ġn",
        "ot"
      ],
      [
        "Ġha",
        "ve"
      ],
      [
        "p",
        "er"
      ],
      [
        "ion",
        "s"
      ],
      [
        "a",
        "re"
      ],
      [
        "a",
        "c"
      ],
      [
        "i",
        "p"
      ],
      [
        "om",
        "e"
      ],
      [
        "id",
        "e"
      ],
      [
        "or",
        "m"
      ],
      [
        "Ġ",
        "3"
      ],
      [
        "ag",
        "e"
      ],
      [
        "el",
        "l"
      ],
      [
        "Ġ",
        "Y"
      ],
      [
        "Ġw",
        "ill"
      ],
      [
        "i",
        "z"
      ],
      [
        "ab",
        "le"
      ],
      [
        "Ġs",
        "e"
      ],
      [
        "g",
        "e"
      ],
      [
        "Ġ",
        "k"
      ],
      [
        "Ġ",
        "\""
      ],
      [
        "igh",
        "t"
      ],
      [
        "as",
        "t"
      ],
      [
        "c",
        "c"
      ],
      [
        "a",
        "p"
      ],
      [
        "a",
        "il"
      ],
      [
        "f",
        "f"
      ],
      [
        "Ġ",
        "un"
      ],
      [
        "Ġ",
        "le"
      ],
      [
        "p",
        "l"
      ],
      [
        "Ġa",
        "d"
      ],
      [
        "d",
        "u"
      ],
      [
        "or",
        "k"
      ],
      [
        "â",
        "Ģ"
      ],
      [
        "a",
        "ct"
      ],
      [
        "o",
        "ok"
      ],
      [
        "Ġal",
        "l"
      ],
      [
        "d",
        "er"
      ],
      [
        "Ġp",
        "l"
      ],
      [
        "a",
        "ck"
      ],
      [
        "Ġs",
        "p"
      ],
      [
        "it",
        "e"
      ],
      [
        "u",
        "p"
      ],
      [
        "i",
        "a"
      ],
      [
        "Ġ",
        "en"
      ],
      [
        "r",
        "y"
      ],
      [
        "Ġa",
        "b"
      ],
      [
        "i",
        "re"
      ],
      [
        "an",
        "ce"
      ],
      [
        "on",
        "g"
      ],
      [
        "f",
        "orm"
      ],
      [
        "i",
        "b"
      ],
      [
        "e",
        "p"
      ],
      [
        "an",
        "s"
      ],
      [
        "ic",
        "al"
      ],
      [
        "Ġw",
        "as"
      ],
      [
        "th",
        "er"
      ],
      [
        "Ġ",
        "#"
      ],
      [
        "u",
        "b"
      ],
      [
        "Ġcom",
        "p"
      ],
      [
        "at",
        "ed"
      ],
      [
        "Ġ",
        "our"
      ],
      [
        "i",
        "k"
      ],
      [
        "Ġ",
        "j"
      ],
      [
        "ic",
        "h"
      ],
      [
        "g",
        "h"
      ],
      [
        "ĠC",
        "h"
      ],
      [
        "Ġ",
        "&"
      ],
      [
        "u",
        "e"
      ],
      [
        "er",
        "v"
      ],
      [
        "Ġcon",
        "t"
      ],
      [
        "as",
        "e"
      ],
      [
        "en",
        "ce"
      ],
      [
        "ou",
        "ld"
      ],
      [
        "b",
        "er"
      ],
      [
        "he",
        "n"
      ],
      [
        "ak",
        "e"
      ],
      [
        "ig",
        "n"
      ],
      [
        "Ġ",
        "4"
      ],
      [
        "as",
        "s"
      ],
      [
        "f",
        "er"
      ],
      [
        "on",
        "e"
      ],
      [
        "in",
        "d"
      ],
      [
        "ar",
        "y"
      ],
      [
        "Ġh",
        "as"
      ],
      [
        "Ġn",
        "e"
      ],
      [
        "a",
        "v"
      ],
      [
        "Ġ",
        "0"
      ],
      [
        "ou",
        "s"
      ],
      [
        "c",
        "l"
      ],
      [
        "ation",
        "s"
      ],
      [
        "Ġ",
        "im"
      ],
      [
        "or",
        "d"
      ],
      [
        "Ġc",
        "l"
      ],
      [
        "Ġd",
        "o"
      ],
      [
        "..",
        "."
      ],
      [
        "ĠR",
        "e"
      ],
      [
        "ĠA",
        "n"
      ],
      [
        "im",
        "e"
      ],
      [
        "ĠW",
        "e"
      ],
      [
        "ic",
        "k"
      ],
      [
        "Ġa",
        "pp"
      ],
      [
        "r",
        "u"
      ],
      [
        "o",
        "od"
      ],
      [
        "ver",
        "y"
      ],
      [
        "Ġre",
        "s"
      ],
      [
        "i",
        "e"
      ],
      [
        "Ġm",
        "ore"
      ],
      [
        "l",
        "l"
      ],
      [
        "am",
        "e"
      ],
      [
        "a",
        "ch"
      ],
      [
        "ou",
        "gh"
      ],
      [
        "c",
        "om"
      ],
      [
        "Ġ",
        "5"
      ],
      [
        "ar",
        "k"
      ],
      [
        "ul",
        "t"
      ],
      [
        "oun",
        "d"
      ],
      [
        "h",
        "er"
      ],
      [
        "Ġ20",
        "2"
      ],
      [
        "a",
        "ce"
      ],
      [
        "ct",
        "ion"
      ],
      [
        "u",
        "al"
      ],
      [
        "Ġthe",
        "ir"
      ],
      [
        "Ġ",
        "âĢ"
      ],
      [
        "Ġm",
        "e"
      ],
      [
        "an",
        "g"
      ],
      [
        "Ġs",
        "o"
      ],
      [
        "res",
        "s"
      ],
      [
        "Ġan",
        "y"
      ],
      [
        "i",
        "le"
      ],
      [
        "s",
        "o"
      ],
      [
        "Ġ",
        "up"
      ],
      [
        "or",
        "s"
      ],
      [
        "re",
        "e"
      ],
      [
        "l",
        "o"
      ],
      [
        "on",
        "t"
      ],
      [
        "Ġp",
        "er"
      ],
      [
        "Ġa",
        "r"
      ],
      [
        "ĠP",
        "ro"
      ],
      [
        "Ġ20",
        "1"
      ],
      [
        "Ġt",
        "r"
      ],
      [
        "-",
        "-"
      ],
      [
        "v",
        "el"
      ],
      [
        "it",
        "ion"
      ],
      [
        "i",
        "ew"
      ],
      [
        "Ġt",
        "e"
      ],
      [
        "Ġ",
        "$"
      ],
      [
        "re",
        "at"
      ],
      [
        "Ġb",
        "ut"
      ],
      [
        "Ġm",
        "an"
      ],
      [
        "en",
        "s"
      ],
      [
        "ĠS",
        "h"
      ],
      [
        "ing",
        "s"
      ],
      [
        "ent",
        "s"
      ],
      [
        "Ġ",
        "out"
      ],
      [
        "oun",
        "t"
      ],
      [
        "ĠI",
        "t"
      ],
      [
        "Ġin",
        "t"
      ],
      [
        "os",
        "e"
      ],
      [
        "Ġ",
        "qu"
      ],
      [
        "ow",
        "n"
      ],
      [
        "Ġthe",
        "y"
      ],
      [
        "Ġwh",
        "ich"
      ],
      [
        "Ġa",
        "cc"
      ],
      [
        "re",
        "n"
      ],
      [
        "Ġw",
        "ork"
      ],
      [
        "ĠTh",
        "is"
      ],
      [
        "ay",
        "s"
      ],
      [
        "Ġd",
        "is"
      ],
      [
        "an",
        "c"
      ],
      [
        "Ġon",
        "e"
      ],
      [
        "ĠC",
        "om"
      ],
      [
        "2",
        "0"
      ],
      [
        "Ġab",
        "out"
      ],
      [
        "el",
        "y"
      ],
      [
        "at",
        "er"
      ],
      [
        "b",
        "s"
      ],
      [
        "Ġo",
        "ther"
      ],
      [
        "Ġal",
        "so"
      ],
      [
        "g",
        "r"
      ],
      [
        "is",
        "h"
      ],
      [
        "E",
        "R"
      ],
      [
        "Ġim",
        "p"
      ],
      [
        "'",
        "t"
      ],
      [
        "ik",
        "e"
      ],
      [
        "o",
        "v"
      ],
      [
        "Ġ",
        "6"
      ],
      [
        "Ġt",
        "ime"
      ],
      [
        "du",
        "ct"
      ],
      [
        "o",
        "y"
      ],
      [
        "Ġpro",
        "v"
      ],
      [
        "Ġp",
        "re"
      ],
      [
        "ol",
        "l"
      ],
      [
        "or",
        "y"
      ],
      [
        "i",
        "an"
      ],
      [
        "t",
        "e"
      ],
      [
        "Ġ",
        "7"
      ],
      [
        "ro",
        "w"
      ],
      [
        "ic",
        "es"
      ],
      [
        "ĠY",
        "ou"
      ],
      [
        "on",
        "d"
      ],
      [
        "le",
        "ct"
      ],
      [
        "in",
        "k"
      ],
      [
        "e",
        "y"
      ],
      [
        "Ġp",
        "art"
      ],
      [
        "Ġe",
        "m"
      ],
      [
        "Ġm",
        "y"
      ],
      [
        "on",
        "s"
      ],
      [
        "ment",
        "s"
      ],
      [
        "ĠW",
        "h"
      ],
      [
        "Ġm",
        "ay"
      ],
      [
        "ĠU",
        "n"
      ],
      [
        "Ġp",
        "r"
      ],
      [
        "ĠA",
        "d"
      ],
      [
        "Ġn",
        "ew"
      ],
      [
        "en",
        "c"
      ],
      [
        "il",
        "d"
      ],
      [
        "p",
        "h"
      ],
      [
        "l",
        "ic"
      ],
      [
        "form",
        "ation"
      ],
      [
        "Ġe",
        "v"
      ],
      [
        "ĠH",
        "e"
      ],
      [
        "cl",
        "ud"
      ],
      [
        "Ġin",
        "ter"
      ],
      [
        "o",
        "in"
      ],
      [
        "Ġf",
        "e"
      ],
      [
        "Ġus",
        "e"
      ],
      [
        "Ġs",
        "c"
      ],
      [
        "s",
        "s"
      ],
      [
        "at",
        "a"
      ],
      [
        "Ġs",
        "a"
      ],
      [
        "Ġd",
        "es"
      ],
      [
        "Ġg",
        "o"
      ],
      [
        "ĠS",
        "p"
      ],
      [
        "o",
        "ve"
      ],
      [
        "al",
        "ly"
      ],
      [
        "Ġg",
        "et"
      ],
      [
        "Ġad",
        "d"
      ],
      [
        "m",
        "er"
      ],
      [
        "Ġ",
        "/"
      ],
      [
        "o",
        "b"
      ],
      [
        "o",
        "ol"
      ],
      [
        "Ġy",
        "ear"
      ],
      [
        "Ġne",
        "ed"
      ],
      [
        "Ġin",
        "d"
      ],
      [
        "Ġs",
        "erv"
      ],
      [
        "l",
        "es"
      ],
      [
        "ĠâĢ",
        "ĵ"
      ],
      [
        "Ġwh",
        "o"
      ],
      [
        "Ġ",
        "if"
      ],
      [
        "at",
        "es"
      ],
      [
        "ar",
        "i"
      ],
      [
        "Ġ1",
        "9"
      ],
      [
        "an",
        "k"
      ],
      [
        "ĠE",
        "n"
      ],
      [
        "Ġa",
        "g"
      ],
      [
        "ad",
        "e"
      ],
      [
        "ic",
        "s"
      ],
      [
        "Ġw",
        "hen"
      ],
      [
        "Ġbe",
        "en"
      ],
      [
        "Ġs",
        "ome"
      ],
      [
        "O",
        "N"
      ],
      [
        "ol",
        "d"
      ],
      [
        "if",
        "ic"
      ],
      [
        "l",
        "p"
      ],
      [
        "1",
        "0"
      ],
      [
        "il",
        "ity"
      ],
      [
        "Ġ",
        "|"
      ],
      [
        "Ġo",
        "ver"
      ],
      [
        "ĠO",
        "n"
      ],
      [
        "n",
        "ing"
      ],
      [
        "it",
        "ies"
      ],
      [
        "ers",
        "on"
      ],
      [
        "l",
        "ine"
      ],
      [
        "ĠC",
        "l"
      ],
      [
        "à",
        "¤"
      ],
      [
        "Ġk",
        "n"
      ],
      [
        "Ġthe",
        "m"
      ],
      [
        "Ġ",
        "8"
      ],
      [
        "a",
        "w"
      ],
      [
        "er",
        "m"
      ],
      [
        "er",
        "t"
      ],
      [
        "re",
        "d"
      ],
      [
        "Ġit",
        "s"
      ],
      [
        "Ġin",
        "clud"
      ],
      [
        "Ġhe",
        "lp"
      ],
      [
        "j",
        "ect"
      ],
      [
        "f",
        "t"
      ],
      [
        "Ġof",
        "f"
      ],
      [
        "x",
        "t"
      ],
      [
        "it",
        "s"
      ],
      [
        "t",
        "t"
      ],
      [
        "ĠS",
        "e"
      ],
      [
        "Ġl",
        "ike"
      ],
      [
        "y",
        "st"
      ],
      [
        "Ġcom",
        "m"
      ],
      [
        "p",
        "e"
      ],
      [
        "Ġa",
        "m"
      ],
      [
        "al",
        "s"
      ],
      [
        "A",
        "N"
      ],
      [
        "Ġh",
        "ow"
      ],
      [
        "r",
        "ough"
      ],
      [
        "ĠD",
        "e"
      ],
      [
        "in",
        "ess"
      ],
      [
        "Ġ",
        "9"
      ],
      [
        "is",
        "e"
      ],
      [
        "ĠI",
        "f"
      ],
      [
        "at",
        "ing"
      ],
      [
        "ĠF",
        "or"
      ],
      [
        "Ġth",
        "ere"
      ],
      [
        "ol",
        "og"
      ],
      [
        "ĠN",
        "ew"
      ],
      [
        "i",
        "ence"
      ],
      [
        "Ġ1",
        "0"
      ],
      [
        "Ġ",
        "ro"
      ],
      [
        "pp",
        "ort"
      ],
      [
        "Ġcon",
        "s"
      ],
      [
        "at",
        "ure"
      ],
      [
        "is",
        "s"
      ],
      [
        "ur",
        "n"
      ],
      [
        "et",
        "s"
      ],
      [
        "I",
        "N"
      ],
      [
        "Ġn",
        "o"
      ],
      [
        "w",
        "e"
      ],
      [
        "ul",
        "ar"
      ],
      [
        "Ġ",
        "Q"
      ],
      [
        "E",
        "S"
      ],
      [
        "Ġin",
        "formation"
      ],
      [
        "r",
        "ic"
      ],
      [
        "p",
        "s"
      ],
      [
        "he",
        "d"
      ],
      [
        "ir",
        "st"
      ],
      [
        "Ġp",
        "e"
      ],
      [
        "Ġre",
        "c"
      ],
      [
        "Ġex",
        "per"
      ],
      [
        "Ġthe",
        "se"
      ],
      [
        "us",
        "e"
      ],
      [
        "f",
        "ul"
      ],
      [
        "ow",
        "er"
      ],
      [
        "al",
        "th"
      ],
      [
        "ĠT",
        "e"
      ],
      [
        "o",
        "ck"
      ],
      [
        "us",
        "iness"
      ],
      [
        "Ġt",
        "ra"
      ],
      [
        "ĠA",
        "r"
      ],
      [
        "Ġg",
        "r"
      ],
      [
        "Ġh",
        "is"
      ],
      [
        "t",
        "ing"
      ],
      [
        "Ġ",
        "["
      ],
      [
        "an",
        "ge"
      ],
      [
        "Ġc",
        "ol"
      ],
      [
        "yst",
        "em"
      ],
      [
        "Ġm",
        "ake"
      ],
      [
        "ri",
        "v"
      ],
      [
        "A",
        "R"
      ],
      [
        "Ġre",
        "g"
      ],
      [
        "r",
        "it"
      ],
      [
        "Ġwh",
        "at"
      ],
      [
        "Ġint",
        "o"
      ],
      [
        "Ġa",
        "ct"
      ],
      [
        "Ġth",
        "an"
      ],
      [
        "ter",
        "n"
      ],
      [
        "Ġun",
        "der"
      ],
      [
        "ot",
        "h"
      ],
      [
        "ĠE",
        "x"
      ],
      [
        "L",
        "P"
      ],
      [
        "et",
        "h"
      ],
      [
        "Ġw",
        "ould"
      ],
      [
        "Ġ",
        ","
      ],
      [
        "Ġas",
        "s"
      ],
      [
        "Ġon",
        "ly"
      ],
      [
        "Ġsp",
        "ec"
      ],
      [
        "Ġre",
        "qu"
      ],
      [
        "Ġb",
        "u"
      ],
      [
        "al",
        "e"
      ],
      [
        "ĠP",
        "l"
      ],
      [
        "ib",
        "le"
      ],
      [
        "am",
        "p"
      ],
      [
        "A",
        "T"
      ],
      [
        "a",
        "x"
      ],
      [
        "ra",
        "ct"
      ],
      [
        "ĠL",
        "e"
      ],
      [
        "Ġb",
        "et"
      ],
      [
        "Ġre",
        "p"
      ],
      [
        "Ġd",
        "if"
      ],
      [
        "ch",
        "n"
      ],
      [
        "Ġpro",
        "duct"
      ],
      [
        "o",
        "ver"
      ],
      [
        "f",
        "ter"
      ],
      [
        "ear",
        "ch"
      ],
      [
        "Ġth",
        "rough"
      ],
      [
        "ĠA",
        "l"
      ],
      [
        "ĠA",
        "ll"
      ],
      [
        "un",
        "d"
      ],
      [
        "ĠB",
        "l"
      ],
      [
        "Ġh",
        "igh"
      ],
      [
        "y",
        "s"
      ],
      [
        "at",
        "h"
      ],
      [
        "en",
        "er"
      ],
      [
        "op",
        "le"
      ],
      [
        "if",
        "e"
      ],
      [
        "Ġm",
        "ost"
      ],
      [
        "Ġd",
        "ata"
      ],
      [
        "Ġb",
        "l"
      ],
      [
        "ust",
        "om"
      ],
      [
        "Ġj",
        "ust"
      ],
      [
        "Ġ",
        "â"
      ],
      [
        "he",
        "s"
      ],
      [
        "v",
        "iew"
      ],
      [
        "Ġin",
        "c"
      ],
      [
        "ation",
        "al"
      ],
      [
        "iz",
        "e"
      ],
      [
        "as",
        "h"
      ],
      [
        "or",
        "n"
      ],
      [
        "Ġb",
        "r"
      ],
      [
        "ĠS",
        "c"
      ],
      [
        "ri",
        "b"
      ],
      [
        "c",
        "ess"
      ],
      [
        "E",
        "N"
      ],
      [
        "an",
        "y"
      ],
      [
        "as",
        "ed"
      ],
      [
        "u",
        "g"
      ],
      [
        "e",
        "k"
      ],
      [
        "em",
        "ent"
      ],
      [
        "ĠC",
        "ont"
      ],
      [
        "Ġre",
        "l"
      ],
      [
        "Ġin",
        "v"
      ],
      [
        "5",
        "0"
      ],
      [
        "Ġ",
        "Z"
      ],
      [
        "O",
        "R"
      ],
      [
        "i",
        "o"
      ],
      [
        "Ġh",
        "er"
      ],
      [
        "Ġe",
        "very"
      ],
      [
        "or",
        "th"
      ],
      [
        "Ġp",
        "h"
      ],
      [
        "pt",
        "ion"
      ],
      [
        "h",
        "ip"
      ],
      [
        "ar",
        "g"
      ],
      [
        "i",
        "ent"
      ],
      [
        "Ġw",
        "ell"
      ],
      [
        "i",
        "ed"
      ],
      [
        "os",
        "s"
      ],
      [
        "Ġw",
        "ere"
      ],
      [
        "or",
        "ld"
      ],
      [
        "ur",
        "ing"
      ],
      [
        "Ġsu",
        "ch"
      ],
      [
        "ag",
        "es"
      ],
      [
        ")",
        "."
      ],
      [
        "it",
        "ed"
      ],
      [
        "vel",
        "op"
      ],
      [
        "g",
        "an"
      ],
      [
        "Ġf",
        "l"
      ],
      [
        ",",
        "\""
      ],
      [
        "Ġf",
        "irst"
      ],
      [
        "Ġex",
        "p"
      ],
      [
        "Ġl",
        "ook"
      ],
      [
        "a",
        "ir"
      ],
      [
        "w",
        "n"
      ],
      [
        "Ġa",
        "c"
      ],
      [
        "Ġ2",
        "00"
      ],
      [
        "ect",
        "ion"
      ],
      [
        "il",
        "y"
      ],
      [
        "Ġbe",
        "c"
      ],
      [
        "Ġt",
        "w"
      ],
      [
        "Ġm",
        "od"
      ],
      [
        "le",
        "ase"
      ],
      [
        "Ġin",
        "st"
      ],
      [
        "Ġtr",
        "ans"
      ],
      [
        "Ġkn",
        "ow"
      ],
      [
        "Ġa",
        "v"
      ],
      [
        "ĠA",
        "s"
      ],
      [
        "Ġ",
        "'"
      ],
      [
        "Ġpe",
        "ople"
      ],
      [
        "1",
        "2"
      ],
      [
        "ard",
        "s"
      ],
      [
        "d",
        "ay"
      ],
      [
        "l",
        "and"
      ],
      [
        "1",
        "9"
      ],
      [
        "Ġre",
        "m"
      ],
      [
        "r",
        "ong"
      ],
      [
        "i",
        "er"
      ],
      [
        "ĠB",
        "e"
      ],
      [
        "Ġe",
        "ff"
      ],
      [
        "i",
        "ous"
      ],
      [
        "ĠO",
        "r"
      ],
      [
        "t",
        "on"
      ],
      [
        "Ġp",
        "ost"
      ],
      [
        "i",
        "x"
      ],
      [
        "Ġat",
        "t"
      ],
      [
        "Ġp",
        "erson"
      ],
      [
        "Ġprov",
        "id"
      ],
      [
        "--",
        "--"
      ],
      [
        "ĠT",
        "o"
      ],
      [
        "gr",
        "am"
      ],
      [
        "Ġd",
        "et"
      ],
      [
        "ĠH",
        "ow"
      ],
      [
        "ul",
        "l"
      ],
      [
        "f",
        "ore"
      ],
      [
        "b",
        "r"
      ],
      [
        "Ġd",
        "ec"
      ],
      [
        "A",
        "L"
      ],
      [
        "a",
        "use"
      ],
      [
        "ĠP",
        "r"
      ],
      [
        "ĠT",
        "r"
      ],
      [
        "Ġdif",
        "fer"
      ],
      [
        "ĠAn",
        "d"
      ],
      [
        "ak",
        "ing"
      ],
      [
        "Ġ",
        "ent"
      ],
      [
        "1",
        "8"
      ],
      [
        "Ġwe",
        "bs"
      ],
      [
        "Ġ1",
        "2"
      ],
      [
        "ĠR",
        "es"
      ],
      [
        "oll",
        "ow"
      ],
      [
        ")",
        ","
      ],
      [
[...]
